#include "ll_aton_NN_interface.h"
#include "ll_aton.h"
#include "ll_aton_ec_trace.h"

#if 0
// Workaround: the tracer does not know the target at this moment
// and cannot call the functions since are used in static code
#define __LL_ATON_LIB_PHYSICAL_TO_VIRTUAL_ADDR(address) LL_Address_Physical2Virtual(address)
#define __LL_ATON_LIB_VIRTUAL_TO_PHYSICAL_ADDR(address) LL_Address_Virtual2Physical(address)
#else
#define __LL_ATON_LIB_PHYSICAL_TO_VIRTUAL_ADDR(address) (address)
#define __LL_ATON_LIB_VIRTUAL_TO_PHYSICAL_ADDR(address) (address)
#endif

#define _mem_pool__user_io_input_0_Default 1
#define _mem_pool__user_io_output_0_Default 3

mpool_reloc_info_t mpool_reloc_info[] = {
  {"AXISRAM6", "_mem_pool_AXISRAM6_Default", 0x34350000, 1, 0},
  {"AXISRAM5", "_mem_pool_AXISRAM5_Default", 0x342e0000, 1, 0},
  {"AXISRAM4", "_mem_pool_AXISRAM4_Default", 0x34270000, 1, 0},
  {"AXISRAM3", "_mem_pool_AXISRAM3_Default", 0x34200000, 1, 0},
  {"xSPI1", "_mem_pool_xSPI1_Default", 0x90000000, 1, 0},
  {"xSPI2", "_mem_pool_xSPI2_Default", 0x70200000, 1, 0},
  {"AXISRAM3_AXISRAM4_AXISRAM5_AXISRAM6", "_mem_pool_AXISRAM3_AXISRAM4_AXISRAM5_AXISRAM6_Default", 0x34200000, 1, 0},
  {"_user_io_input_0", "_mem_pool__user_io_input_0_Default", 0x1, 0, 1},
  {"_user_io_output_0", "_mem_pool__user_io_output_0_Default", 0x3, 0, 1},
  {NULL, NULL, 0, 0, 0}
};


static const uint64_t __blob_Conv2D_7_zero_off_2[] = {
  0x0000000000000000ULL,
};

static const uint64_t __blob_Conv2D_7_mul_scale_5[] = {
  0x1F0F06F01C761846ULL,0x0E3E24D1069C291EULL,0x4F102316087E1734ULL,0x086D0BC81E7D3489ULL,
};

static const uint64_t __blob_Conv2D_7_off_bias_8[] = {
  0x022F00BF01F10B8CULL,0x01F719BA01299A0FULL,0x02296B2002992B10ULL,0x022E53DB023FA836ULL,0x01A2A56D01F50236ULL,0x02180F30027C37F8ULL,0x01F67829015FD45BULL,0x01A0CA1B00DA8D5FULL,
};

static const uint64_t __blob_Sigmoid_10_activ_ROM0[] = {
  0x11108CC403020100ULL,
};

static const uint64_t __blob_Sigmoid_10_activ_ROM1[] = {
  0x0000F80000000000ULL,0x00000000F8000000ULL,0xF80000000000F800ULL,0x1000F80000000000ULL,0x00800000F862FD80ULL,0xF952FB801000F7CCULL,0x5000045CE4804000ULL,0x4800C000078EDD00ULL,
  0xB0165380B000B800ULL,0x0000EEE314ABEEEFULL,0x0000000007F00000ULL,0x07F00000000007F0ULL,0x000007F000000000ULL,0x0000000007F00000ULL,
};

static const uint64_t __blob_Conv2D_15_mul_scale_14[] = {
  0x49D62356331D5836ULL,0x334526E135DE4E30ULL,0x2676212B371A625DULL,0x27BE31C72DCA26A4ULL,0x597517A572E821AEULL,0x512E322169CA215BULL,0x57C7198D1DD56713ULL,0x31EC0D9423E330DDULL,
};

static const uint64_t __blob_Conv2D_15_off_bias_17[] = {
  0xFFFA367D00109D18ULL,0x00117D33002CFBD8ULL,0x001C4E3C0025B709ULL,0x000F5E4E0020CF68ULL,0x00A44E4E0017F882ULL,0x00583C62004E0358ULL,0x00006955FFF82AACULL,0x0052B97C000149C7ULL,
  0xFFF98E9E001408EEULL,0xFFD82107001F9650ULL,0xFFCE7E66FFA1B827ULL,0xFF7BC2BBFFF6AA9AULL,0xFFD47237FFF396BDULL,0x0028A2D400197A0AULL,0x003920B70033A759ULL,0xFFE1638200DA53D1ULL,
};

static const uint64_t __blob_Sigmoid_18_activ_ROM0[] = {
  0xC706050403020100ULL,0x1D1C1B1A191817CFULL,
};

static const uint64_t __blob_Sigmoid_18_activ_ROM1[] = {
  0x0000C00000000000ULL,0x00000000C0000000ULL,0xC00000000000C000ULL,0x0000C00000000000ULL,0x00000000C0000000ULL,0xC00000000000C000ULL,0x0000C00000000000ULL,0x02000000C0000000ULL,
  0xC48002000000C500ULL,0x0000CE0008000000ULL,0x44000000E4001C00ULL,0x000054000000FC00ULL,0x000010002C000000ULL,0x0400000028001000ULL,0x3F80000000003800ULL,0x00003F8000000000ULL,
  0x000000003F800000ULL,0x3F80000000003F80ULL,0x00003F8000000000ULL,0x000000003F800000ULL,0x3F80000000003F80ULL,0x00003F8000000000ULL,0x000000003F800000ULL,
};

static const uint64_t __blob_Conv2D_22_mul_scale_23[] = {
  0x2DB923AC3CD027D6ULL,0x219B27D62EE446B4ULL,0x2C4534F13C9C2D5CULL,0x76CE43873030573DULL,0x1B0E19774FFE10E9ULL,0x101B21E017091187ULL,0x12D71EC4145C1631ULL,0x0FC143FA115124CCULL,
};

static const uint64_t __blob_Conv2D_22_off_bias_26[] = {
  0x03EE558B043978D0ULL,0x04397EE204001BDCULL,0x041EF6DF0421633AULL,0x044DB99F040D4155ULL,0x045400B203E95539ULL,0x03D3356304565E78ULL,0x0456ABF603E4E3D5ULL,0x0403947C03FAB469ULL,
  0x039CF5320432F4A6ULL,0x040FD25B03CD97E2ULL,0x0419626103EF568EULL,0x03CFCE3203C89C58ULL,0x03EAE18E03E158AAULL,0x042F75BC03D6BBA1ULL,0x0421342C03FADB01ULL,0x04911E7503F782F0ULL,
};

static const uint64_t __blob_Sigmoid_25_activ_ROM0[] = {
  0x15CDC50403020100ULL,
};

static const uint64_t __blob_Sigmoid_25_activ_ROM1[] = {
  0x0000FE0000000000ULL,0x00000000FE000000ULL,0xFE0000000000FE00ULL,0x0000FE0000000000ULL,0x00000000FE000000ULL,0x0491F5C01000FE00ULL,0x100005EDF4C01000ULL,0xCD804000064CF480ULL,
  0x3E7DB180600025FCULL,0xB000CDF72980E000ULL,0x3640D000A0735840ULL,0xEB681300F000C494ULL,0x000001FC00000000ULL,0x0000000001FC0000ULL,0x01FC0000000001FCULL,0x000001FC00000000ULL,
  0x0000000001FC0000ULL,
};

static const uint64_t __blob_Conv2D_32_mul_scale_32[] = {
  0x1FF52E2F1C5E1E61ULL,0x175424BC1CF41045ULL,0x17475FD324F93CD1ULL,0x10183DEC288A2E27ULL,
};

static const uint64_t __blob_Conv2D_32_off_bias_35[] = {
  0x03206E25025D6A09ULL,0x014DF839025AE80FULL,0x027621F90262C2B2ULL,0x0146326C0268750BULL,0x02F12C1C028D25A4ULL,0x0177E4AA00D07032ULL,0x014B6F6C01C8C789ULL,0x038BB75A00FC12BAULL,
};

static const uint64_t __blob_Sigmoid_35_activ_ROM0[] = {
  0x11108CC403020100ULL,
};

static const uint64_t __blob_Sigmoid_35_activ_ROM1[] = {
  0x0000F00000000000ULL,0x00000000F0000000ULL,0xF026005A009CF000ULL,0x0000F02801000000ULL,0xFB002000EFE00200ULL,0xF0BCFC002000F184ULL,0x2000FFDCDD006000ULL,0x3400E000E7FC0400ULL,
  0xAD404F00C000C404ULL,0xF333C00F3DBCCFA5ULL,0x00000000F38A1300ULL,0x0FE0000000000FE0ULL,0x00000FE000000000ULL,0x000000000FE00000ULL,
};

static const uint64_t __blob_Conv2D_40_mul_scale_41[] = {
  0x2C221908422D59F5ULL,0x2DFE2E152E5B2666ULL,0x67C34B77369C395DULL,0x2B842B852F1B1FC4ULL,
};

static const uint64_t __blob_Conv2D_40_off_bias_44[] = {
  0x017441C6FF9DEF9EULL,0x016FF663004BB096ULL,0x0086D54A0120616BULL,0x00BFA3A800BB38D4ULL,0x00331DAA0093A07EULL,0x00C392BA00D66033ULL,0x023D59C3013EBD27ULL,0x01A2C935007290D7ULL,
};

static const uint64_t __blob_Sigmoid_43_activ_ROM0[] = {
  0x11100FC783020100ULL,
};

static const uint64_t __blob_Sigmoid_43_activ_ROM1[] = {
  0x0000C00000000000ULL,0x00000000C0000000ULL,0xC00000000000C000ULL,0x1000C7CA049F02D8ULL,0x1E332CCDD3701100ULL,0xD9E020004000D9ADULL,0xC000D46032000000ULL,0x5800C000C0005600ULL,
  0xDD103800E000BD20ULL,0xE000E1703600E000ULL,0x02000000DB903800ULL,0x3AD2019EFF773720ULL,0x00003F8000000000ULL,0x000000003F800000ULL,
};

static const uint64_t __blob_Conv2D_51_mul_scale_50[] = {
  0x1E31148827D619A0ULL,0x1D422CF524830DDAULL,0x26991264174E1600ULL,0x52C32E201D8114F7ULL,0x1BC11E041DF715F9ULL,0x2EEC2A071808397BULL,0x26C41A6718732CD6ULL,0x33D12CE71EF021CEULL,
};

static const uint64_t __blob_Conv2D_51_off_bias_53[] = {
  0x032BED2E02661A33ULL,0x01795E8D016C887CULL,0x012008E30214C990ULL,0x02FF0532027DC4F0ULL,0x028BA05602BEC517ULL,0x00276C6C023F9C95ULL,0x02E61540028AACD4ULL,0x01DFB7A702D63955ULL,
  0x01BAB534015E748BULL,0x01939CB2005286DCULL,0x028147BD02808A23ULL,0x0160257A00754CCFULL,0x0223B80F008EE8E1ULL,0x00102671FFBF2341ULL,0x00EB3B4501485CFBULL,0x00E8040600A7395EULL,
};

static const uint64_t __blob_Sigmoid_54_activ_ROM0[] = {
  0x000000000DC58100ULL,
};

static const uint64_t __blob_Sigmoid_54_activ_ROM1[] = {
  0x0000C00000000000ULL,0x00000000C0000000ULL,0xC6AC06600199C000ULL,0x1C72CCF714000925ULL,0x22001000CDB21555ULL,0xAB0D5D9AF333C9F0ULL,0xEAAB9CAB7400EAABULL,0x2F8EF8E49C6B7400ULL,
  0x1EE010ABFDDEEEDCULL,0x0000A72050ABF555ULL,0x000000003F800000ULL,
};

static const uint64_t __blob_Conv2D_59_mul_scale_59[] = {
  0x1E1F0F3E1F0A1059ULL,0x304E3DEF13FD2115ULL,0x23221F5D1250161BULL,0x494F3BD51D972579ULL,0x20C22BAA159B1C9BULL,0x1B732E343A85281DULL,0x11D212C8121F10EEULL,0x18A61ABE2AEE1E32ULL,
  0x17D720A217A820B9ULL,0x14E230524A3B1F46ULL,0x21A51E8212362FE7ULL,0x25EC0F5D176C432EULL,0x22502C6D19B51BDFULL,0x176227551FDA3887ULL,0x29E329790F98317AULL,0x1D3623F71977503FULL,
};

static const uint64_t __blob_Conv2D_59_off_bias_62[] = {
  0x0092C6E3021975B3ULL,0x01FC734202A85FCDULL,0x0088522600354141ULL,0x008C384D00C8BEC0ULL,0x024B74600018410BULL,0xFFEC296B00C4312AULL,0x0061542F00BE7ED8ULL,0x012DCDAD00EF62EEULL,
  0x017D79AC01A3E636ULL,0x0126EF22014E4FE4ULL,0x00A7FAF80074D955ULL,0x00A22D8C00347267ULL,0x0119586400C7FCBCULL,0x022C5F1F01456423ULL,0x000F81EB0120BB5CULL,0x004BC7C90106EB71ULL,
  0x014EA271013D6EA0ULL,0x009B2F190010FA04ULL,0xFFF1C91C00AE6DA8ULL,0x02FCDE26007BF189ULL,0x00F1EBE4012643DEULL,0x001DCB33012E7C43ULL,0x02C74381FF4F2928ULL,0x0067991D01950B70ULL,
  0x00D9A03E021E705EULL,0xFFB39960007C3B3CULL,0x015023700066EC3EULL,0x00492CF0005E997DULL,0x02D4920E0136FB91ULL,0x00AB285A0067AA02ULL,0x017C28240225ACDAULL,0x01DF87DD01E7325AULL,
};

static const uint64_t __blob_Sigmoid_62_activ_ROM0[] = {
  0x0706050403020100ULL,0x16151413121110C8ULL,
};

static const uint64_t __blob_Sigmoid_62_activ_ROM1[] = {
  0x0000C00000000000ULL,0x00000000C0000000ULL,0xF00B2A000249C000ULL,0x01F0D06B100B00FFULL,0x3CCD0666D6AF19F0ULL,0xEDB4516E0B03E7E6ULL,0x0000ED8050000000ULL,0x50000000EC806000ULL,
  0xEE8050000000EE00ULL,0x0000EA8060000000ULL,0x50000000EF005000ULL,0xEF8050000000EF80ULL,0xFA2FE63D77F9F4FDULL,0x2377FDDEFBAF4DD1ULL,0xFF5E3800FCF41A13ULL,0x00003F8000000000ULL,
  0x000000003F800000ULL,0x0000000000003F80ULL,
};

static const uint64_t __blob_Conv2D_66_mul_scale_68[] = {
  0x4DCB30D13E852D93ULL,0x3772469D2B472BEFULL,0x25702C8029CA46DAULL,0x3BF235DA382437ECULL,0x45BC73A847412DACULL,0x2C8022872D1737FDULL,0x2EE519303F9C31F5ULL,0x3DA82B9E2E8632DCULL,
  0x0F6312AD174C141DULL,0x16C324D41C5710A0ULL,0x258010A214C90FB2ULL,0x1D801553104317D7ULL,0x12EA17911E841924ULL,0x1C8120A713DE10A7ULL,0x0EA010A8280114A5ULL,0x1EED17F31014111DULL,
};

static const uint64_t __blob_Conv2D_66_off_bias_71[] = {
  0x025BC1F101A985D8ULL,0x0014333E03017805ULL,0x008DF76E0271EA47ULL,0xFF8A2B050308D00EULL,0x01379B28009AA237ULL,0x00B3964D018B8C6BULL,0x00E18B3F005AE17EULL,0x0031B58201B5824BULL,
  0x01042EF3004F2588ULL,0x03020038FF428EB2ULL,0x010AEFDBFF93AB90ULL,0x0253E84B01B88CA5ULL,0x01E2688301D82498ULL,0x000C6CB2013E0F80ULL,0x0142C19902479093ULL,0x0079E24F0411AE2DULL,
  0x020E4CDC0228B160ULL,0x01B1B33C023E0E33ULL,0x0159D8D802457D5BULL,0x02B12E2D014FC9C7ULL,0x024BF3860198D5A4ULL,0x00E5477001BEE527ULL,0x0237FE4101404733ULL,0x01CBBD5702142AB3ULL,
  0x01C772CC020ADB3EULL,0x015336E500E1D33FULL,0x010D3EA0025642D7ULL,0x012461C5002DAF2DULL,0x0154FD7802CD7892ULL,0x01721313026FEAEFULL,0x012E2ADE02E7CF5BULL,0x0185A3A201715FA9ULL,
};

static const uint64_t __blob_Sigmoid_69_activ_ROM0[] = {
  0x000000000BC34100ULL,
};

static const uint64_t __blob_Sigmoid_69_activ_ROM1[] = {
  0x0021C00000000000ULL,0x0EA60418C3020151ULL,0xCF2812001000CE69ULL,0x0222CCF91A39071CULL,0x3AEFFBBCC4572866ULL,0x9D1A58CDF333B704ULL,0xF8E4C6873A39F8E4ULL,0x1577FDDECBDC3872ULL,
  0x306C04D1FFA009ADULL,
};

static const uint64_t __blob_Conv2D_75_mul_scale_77[] = {
  0x20811FC935522394ULL,0x1E9011EE2A7D315FULL,0x37BB2F8A2E9A1F6DULL,0x22F325C12CDB2149ULL,0x29613A4231A62717ULL,0x257028FC3D982207ULL,0x2D4C42F448F922FCULL,0x151B229315892DAEULL,
};

static const uint64_t __blob_Conv2D_75_off_bias_80[] = {
  0x01DB503B01B44EEAULL,0x017B395A02CA439DULL,0x010865890037C018ULL,0x01FAF81903217C03ULL,0x023826E90152CE17ULL,0x02931AE4025DF37CULL,0x00CD90A701B17519ULL,0x017D58F4022C3723ULL,
  0x0069CA7F01B69EBDULL,0x01A2DE3001525E28ULL,0x01D8583004CE60ACULL,0x02BE2C3D00D055EFULL,0x0297F96E01796568ULL,0x01B0B4950124CB2EULL,0x046E95DF0146A901ULL,0x0329139D01DA4408ULL,
};

static const uint64_t __blob_Sigmoid_78_activ_ROM0[] = {
  0x000000008BC34100ULL,
};

static const uint64_t __blob_Sigmoid_78_activ_ROM1[] = {
  0x00D0C6E7023D002DULL,0x1085038ACD140659ULL,0xD73512000AABD6B2ULL,0x0800D67C159A0444ULL,0x20000000DC5C0C00ULL,0xC2512F33FBBCD000ULL,0x0000A7DC4300F800ULL,0x1B11FDDEF9001000ULL,
  0x04B211D5FEABEC53ULL,0x0000097A10D5FEABULL,0x0000000038A80100ULL,0x0000000000003F80ULL,
};

static const uint64_t __blob_Conv2D_83_mul_scale_86[] = {
  0x1CD019F155F9389AULL,0x17D013DF1C7F2983ULL,0x134032CA30F03A1AULL,0x2270146A136C120BULL,0x490F1CFA344B19CCULL,0x19554DDD1F6048B8ULL,0x24B11E0626D213AAULL,0x17B1245F27F31747ULL,
};

static const uint64_t __blob_Conv2D_83_off_bias_89[] = {
  0x001EE75600A73ADDULL,0x005B56C400702755ULL,0x011AC96E00A7D313ULL,0x018F750E00FBF3DAULL,0x0055FB8100D6DC9EULL,0x00EBBA7DFFE2234AULL,0x00566FA1010DA6B2ULL,0x00565BB40044F95BULL,
  0x003C498F00D29809ULL,0x00079B1D00CB94B3ULL,0x009E8C87FF71F0C0ULL,0x008D8AFFFFB46C59ULL,0x007DE88E0214BEEDULL,0x00312D87000ECD15ULL,0x00E7B2D2011BD264ULL,0x00C727D8014AA172ULL,
};

static const uint64_t __blob_Sigmoid_86_activ_ROM0[] = {
  0x000000000000C8C0ULL,
};

static const uint64_t __blob_Sigmoid_86_activ_ROM1[] = {
  0x0000C00000000000ULL,0x00000000C0000000ULL,0xC00000000000C000ULL,0x00C3C2B1013B0000ULL,0x35B005B0CD850D0CULL,0xEAED53330CCDE2E1ULL,0xF49FEA38566200A5ULL,0x4DD1FA2FE2117D83ULL,
  0x1E921E72FE39FBAFULL,0x0000094E2FACFD63ULL,0x000000003F800000ULL,0x3F80000000003F80ULL,
};

static const uint64_t __blob_Conv2D_94_mul_scale_95[] = {
  0x54E6319F24FF315DULL,0x1D0546D32E542B9BULL,0x2350469F4138373EULL,0x329A3A6139142438ULL,0x33C63B403614372BULL,0x3F8C5D36381040C3ULL,0x1C754E9D3F6434BEULL,0x4606238331B222D6ULL,
};

static const uint64_t __blob_Conv2D_94_off_bias_98[] = {
  0x00DA7F15031F68D9ULL,0x01D1A4240069BF54ULL,0x0277B69701BF3730ULL,0x028963D60018C30EULL,0x00EFC274FFB0D873ULL,0x0168C55F028B8C16ULL,0x0181F2EC020F7B73ULL,0x006E577302C90C6BULL,
  0x01D7AF4D007CE4C6ULL,0x01AFCBBE010DF6B8ULL,0x01FFCB8801578DFFULL,0x00A4EA1102616A08ULL,0x01BC772000EECB76ULL,0x01C4A163015573F4ULL,0x009A577C021E16F2ULL,0x00B67452018431B4ULL,
};

static const uint64_t __blob_Sigmoid_97_activ_ROM0[] = {
  0x0000000085434100ULL,
};

static const uint64_t __blob_Sigmoid_97_activ_ROM1[] = {
  0x0098C646041F002AULL,0x1D550333CA5309A1ULL,0xD3E725970449D3D6ULL,0xFCB8B3BA6BAFFA95ULL,0x2379FEA5D5D24970ULL,0x21480FFAFF79049EULL,0x00003F8000000000ULL,
};

static const uint64_t __blob_Conv2D_102_mul_scale_104[] = {
  0x1CE937FA197F1AF9ULL,0x24B7231727571DFFULL,0x2500240527061941ULL,0x2BDB2A1E1BAE2327ULL,0x2456201F22A71860ULL,0x1A332F0E25FE188FULL,0x1D532EBE1E1E2306ULL,0x1A02177018B7492AULL,
};

static const uint64_t __blob_Conv2D_102_off_bias_107[] = {
  0x002729F2FFF5DDC9ULL,0x001B2DDEFF37475CULL,0x00174A60FF3B4A43ULL,0x0063A13EFF88E8FDULL,0xFEF9D100FF8666C5ULL,0xFF22A919FFB0E943ULL,0x00B9A371FF43F330ULL,0xFF3E8CB9FF3B6E9CULL,
  0xFFF72EBD0180AC30ULL,0xFF40DF9D004FC83EULL,0xFF8066D30029753DULL,0xFF36B0F7FED071E5ULL,0xFF5621BAFE646449ULL,0xFF8E71ABFEABA706ULL,0xFF7F05A3FEF7A161ULL,0x005F824E000AA9FEULL,
};

static const uint64_t __blob_Sigmoid_105_activ_ROM0[] = {
  0x000000000000C8C0ULL,
};

static const uint64_t __blob_Sigmoid_105_activ_ROM1[] = {
  0x0000C00000000000ULL,0x00000000C0000000ULL,0xC00000000000C000ULL,0x0374C346019A0000ULL,0x79250D4CE2642AF2ULL,0x0EB47D390A9409A4ULL,0xF8000DDE6F8EEDC7ULL,0x15B7FE2C19844400ULL,
  0x3F80000000002F50ULL,0x00003F8000000000ULL,0x000000003F800000ULL,0x3F80000000003F80ULL,
};

static const uint64_t __blob_Conv2D_114_mul_scale_113[] = {
  0x5E6C268027CC2F34ULL,0x22395F2B347331D7ULL,0x5DD44D1D3E3A3E1FULL,0x448A3D2B514D423BULL,0x335347E631543D0EULL,0x52E4513325B77B20ULL,0x359551504EE74F53ULL,0x2C284EB528ED3A03ULL,
  0x49EF4BCD41B53068ULL,0x3F071D61449034B7ULL,0x47A82EB03FF54875ULL,0x559E51313FF23A8EULL,0x2F6042C94D8364D5ULL,0x58FE4C0B43DA290EULL,0x274E3D6D29324F43ULL,0x450B6CDF47BF7C30ULL,
};

static const uint64_t __blob_Conv2D_114_off_bias_116[] = {
  0x00580D75FFF88234ULL,0xFC1B461CFF6FBB73ULL,0x001C09930008EBF5ULL,0xFF6025CBFF3D3795ULL,0x00BF35F6FE9A9256ULL,0xFEFB1BC600622C70ULL,0x015FE4D0006D5FCAULL,0x009CA4A4FDFBCE8DULL,
  0xFFC591E9FFF51937ULL,0xFF44B0000029310DULL,0x00546239FFDDDF1AULL,0xFF04222BFF83C078ULL,0xFE0EA78B0084935BULL,0x00218FA2FE210505ULL,0x01402667007F4B09ULL,0xFFF4D910002193E2ULL,
  0x00FEC4FA00AE3B12ULL,0x00F3997BFF2EFF2AULL,0x009A58CFFFD93E15ULL,0x00D3ADD0FFA6037AULL,0xFF077BA20150FA51ULL,0x00435C9100B1D4E5ULL,0x0034F2A9FF6C6C4DULL,0x00B9F91900068BE8ULL,
  0xFFC01B01002E184AULL,0xFFA4F4B0FFACC69BULL,0x011A7C6B0014423DULL,0xFD829722FF87E282ULL,0x00770C5FFF28075CULL,0xFFA4B783FFB4D40FULL,0xFFA93EACFFFA4C2AULL,0x0038C302FE004BC2ULL,
};

static const uint64_t __blob_Sigmoid_117_activ_ROM0[] = {
  0x00000000000088C0ULL,
};

static const uint64_t __blob_Sigmoid_117_activ_ROM1[] = {
  0x0000E00000000000ULL,0xC72FFD63E0000000ULL,0xECB3122F00D5B9B9ULL,0x0618FD1E334B02EDULL,0x6EDB07EC0C6E5AABULL,0x0DFD475DFDF812F8ULL,0xFEBB0DF03AC7F923ULL,0x00000000171312B1ULL,
  0x1FC0000000001FC0ULL,
};

static const uint64_t __blob_Conv2D_122_mul_scale_122[] = {
  0x53B41AEF1BA21D7AULL,0x100A13611EC30E55ULL,0x1BD21D8A2BFC33C3ULL,0x192327D414F018FAULL,0x116B382A167C15F5ULL,0x1C79124417CE3E58ULL,0x1DF311E6180217FCULL,0x1CC719E8333F1916ULL,
  0x21190CF61AD3183CULL,0x1C1B203E165614D6ULL,0x13E91CE618E42612ULL,0x22F1185711E61101ULL,0x26F11B5B1B3027E0ULL,0x0D491F3020AD1E82ULL,0x1794163610741895ULL,0x272F1CCA22E21903ULL,
  0x195F101018371592ULL,0x1F781F12374F1788ULL,0x154518EE15982110ULL,0x1121245918CD50E9ULL,0x12CC1F33133212F4ULL,0x14CA11F637F4260BULL,0x222724580BAA22D7ULL,0x0D3A34E611E3183FULL,
  0x14EE3BE3174D1A1CULL,0x1EBA26CD1CEB18F5ULL,0x0CAC0EAB1C251205ULL,0x1BF51A004E1B0FD1ULL,0x1AA7142718501659ULL,0x2E131F27184118EBULL,0x18E019212A5D1A0CULL,0x21C70C121A3E1D8EULL,
};

static const uint64_t __blob_Conv2D_122_off_bias_125[] = {
  0xFE9968B4FFE146B1ULL,0x00329FD4FFDCC5F1ULL,0x00025C2300A9B75EULL,0x00A739CBFF8CB93EULL,0xFE5E1EB3FEFA565AULL,0xFED6C18DFF1C43D7ULL,0xFF5FADDBFF29FAC4ULL,0xFEDAE7ADFEC28804ULL,
  0xFF67121AFF6DB700ULL,0x0075F6A1FFA0BF9FULL,0x00551DAE00227408ULL,0xFF052FAC00F07DB9ULL,0xFF2D2A970039887BULL,0xFF2552A8FFF062BEULL,0xFD7B7EF5000D933EULL,0xFF677415FF50510FULL,
  0xFF8F077F001693EFULL,0xFF9947C500872E5BULL,0xFFBEB85CFFD24869ULL,0xFEBB9F0F00B259DEULL,0xFEED74EDFFCF098AULL,0x004EA11600076A78ULL,0xFF84C29C00BD182CULL,0xFE5929D5FEDEFEA4ULL,
  0xFEA4251FFF6AFF80ULL,0xFF0BF6AA003B0FB5ULL,0xFF4A3D21007B85BAULL,0x0069881BFDBDAF4DULL,0x001E861B0065F6BCULL,0xFECEECAEFEC3680EULL,0xFED6CF8AFF20E637ULL,0xFF17AF60FF1FA02AULL,
  0x00852199FF9E17C8ULL,0xFF31926C007BFA52ULL,0xFFFFF373FFB9E789ULL,0x004751A0FED20990ULL,0x00A3C672005E4742ULL,0xFFA45B3AFE862824ULL,0xFEEF1008FF68A544ULL,0x01380F93FF4BAD55ULL,
  0xFF987CCAFEAE8ED9ULL,0xFFB21F39FF41E9D4ULL,0xFECB5120FF151051ULL,0x00A501B2FFE36C7AULL,0x012C25E8FF16AB17ULL,0x00587CE4FEF76B85ULL,0x00091C84003BD47CULL,0xFFF6B305FFA6D6A7ULL,
  0xFEF0A615FFEA08E0ULL,0xFF9F7392FF6ED58CULL,0xFF99CEADFFA7D12DULL,0xFF7602DDFF7C01FCULL,0xFEB5DA50001656E3ULL,0x000DAFF0FFD20A37ULL,0xFFE452E000E94A43ULL,0xFE90FA82FFD29E09ULL,
  0xFFD609A200392BD9ULL,0xFFD50C8C00C14990ULL,0xFE62DE80FFC8A11EULL,0xFF78D2BC0046DDCCULL,0xFEEDB8040040A838ULL,0xFF6E3AEDFF2608AEULL,0xFFD63997FF1666C9ULL,0xFF1366DC002C027FULL,
};

static const uint64_t __blob_Sigmoid_125_activ_ROM0[] = {
  0x00000000000088C0ULL,
};

static const uint64_t __blob_Sigmoid_125_activ_ROM1[] = {
  0x0000C00000000000ULL,0x00000000C0000000ULL,0xD710102A00BAC080ULL,0x045DF2782C7B028FULL,0x657408BA038942BAULL,0x0D2E47A5016C150CULL,0xFDFE0CF14573F920ULL,0x0D63FF591FF01F6EULL,
  0x3F80000000002E90ULL,
};

static const uint64_t __blob_Conv2D_129_mul_scale_131[] = {
  0x2E16241B236D1B9FULL,0x2AC82B4D288134F5ULL,0x20142A5929CD36E7ULL,0x1E2220252C06281CULL,0x31191F512AEF272FULL,0x1AF91789703D3B6CULL,0x238A264641E720EDULL,0x28F92CFF1C7B30F7ULL,
  0x1F16343026DA1A18ULL,0x21A12224360A2E1FULL,0x32811F682B6021C6ULL,0x1FF3231520C02015ULL,0x1DD8213921915C40ULL,0x2A4E22111DD13361ULL,0x20C924E42AC91C8CULL,0x5F7F205E2CD338DBULL,
  0x1D1914EB16260ED6ULL,0x0F840F9B16440D7AULL,0x12811B1F0F7A2166ULL,0x0BA113670D811AD5ULL,0x174F0F3F0BEE0D7DULL,0x10A10FCB12DB2293ULL,0x324D1564152B12E2ULL,0x0F7E0C7417F61002ULL,
  0x0E1318C5182F0B9DULL,0x1D4317180FE313FEULL,0x121C0EAD177314C4ULL,0x13EF0D710CCD0D17ULL,0x0EBC15150D5B367FULL,0x14DD0DBB1228187CULL,0x14D51C123A3A1420ULL,0x10170E6814B20B2BULL,
};

static const uint64_t __blob_Conv2D_129_off_bias_134[] = {
  0x0127128900590BF7ULL,0x00334D70010C013BULL,0x0114C688000D3419ULL,0x0089C0FE012B9AC9ULL,0x0040FADD00B352DDULL,0x006E69ED017E66D7ULL,0x0167283E0033C337ULL,0x005BB6A2009EE43AULL,
  0x0072508A0037BDA8ULL,0xFFD5A1CC0073BCF2ULL,0x0033FF1A004594B1ULL,0x015B23B70198E7F6ULL,0x00B92DB3010A5645ULL,0xFFAD35B50069AD41ULL,0x00D61FABFF63999FULL,0x008618F400AD0116ULL,
  0x00F9B98800C464A9ULL,0x005D78C8FFDE4C0DULL,0x009DDEC601619B5CULL,0x00AA9F0C00AF3FF9ULL,0x00682278006D32A8ULL,0x00E78B8500583FA7ULL,0x01436EC700E0B55EULL,0x01199969FFE6407DULL,
  0x00F3878700F993C0ULL,0x00683EF3FFF6D4FBULL,0x01A9C70A00F9BDB6ULL,0x001FA5B800DBB5BAULL,0x001DF3A600E9E3B0ULL,0x004AC11900268925ULL,0x00D1FAD0004EA66FULL,0xFF14316C01249AFAULL,
  0x00BCC7F000FC8C50ULL,0x00533E9A00791DB0ULL,0x0054D7B0007F1E46ULL,0x00899A0600C1CBB5ULL,0x00D8C2A700594A76ULL,0x0058370A00CEE4AFULL,0x00BACD700023E908ULL,0x0127DF9100CA30FAULL,
  0x011ECE4A00E14DEAULL,0x0059118B00CB7B53ULL,0x0109848800354C2AULL,0x00DF487100B01FC0ULL,0x00598FA100EE1B5FULL,0xFDFC43D4007C205CULL,0x00DDD432009F5E7AULL,0x01097E5D00BB7305ULL,
  0x0012E0BC009D4C55ULL,0x007FADF8008CC68AULL,0x008CEB8E01060720ULL,0x005D76D100796C17ULL,0x00D97A7E00ACC67DULL,0x00D25588010AA6BAULL,0x00FCA0FF00F8E0A6ULL,0x00BD4B4101372441ULL,
  0x00E5C850005BD765ULL,0x003F24C200B1AE04ULL,0x00ACDC41006AA17BULL,0x005C9A7E00B299A8ULL,0xFFE72C83004870BFULL,0x00DD0671FFFCFAA9ULL,0x00536C370107C794ULL,0x012BA8340125780CULL,
};

static const uint64_t __blob_Sigmoid_132_activ_ROM0[] = {
  0x0000000011C9C100ULL,
};

static const uint64_t __blob_Sigmoid_132_activ_ROM1[] = {
  0x0000C00000000000ULL,0x00000000C0000000ULL,0xAFD2F222FD28C000ULL,0x0222C55002000000ULL,0x1C000800CE3E0ACDULL,0xDDB324000CCDDADCULL,0x1333DF6627330CCDULL,0x38000000DFA02A00ULL,
  0xCDE05A00ECCDDD00ULL,0xF8E4D5E85000F000ULL,0x2200FAABFC5C2B1CULL,0x20ED1022FDDE07FDULL,0x0000CF243C00F800ULL,0x000000003F800000ULL,
};

static const uint64_t __blob_Conv2D_138_mul_scale_140[] = {
  0x269C0CC318AD14F7ULL,0x17E323420F17144CULL,0x238841F425901F29ULL,0x12AB0D8E2AF12354ULL,0x160F0F8C1B0D1CC9ULL,0x0D8A0E0310301C99ULL,0x236926B714D61A0DULL,0x26D21AA911B51A72ULL,
  0x2A651FCD11361599ULL,0x1A7F0D6D1499356EULL,0x14C8180920A10D51ULL,0x13BB4DFB1ADA2252ULL,0x1A181A100FA91C47ULL,0x295F11981A701123ULL,0x1E5D172714AB2073ULL,0x0F541644181E2457ULL,
};

static const uint64_t __blob_Conv2D_138_off_bias_143[] = {
  0xFF8D4871FF817A0BULL,0xFFF3B97B00E9D87AULL,0x007336DA000326E4ULL,0xFFFDEB09FFC5B16EULL,0xFF46C72E008DE643ULL,0xFF1F7A330011228DULL,0x0016E195FFF546E3ULL,0xFFB5CF5E00D2E50BULL,
  0xFFAF37EA003179EBULL,0x00585FB200B7E931ULL,0xFFD3AD12FFC50896ULL,0x019D00E40024A500ULL,0xFF46AB5FFFADEF3FULL,0xFF694EFAFFB30191ULL,0x00299F060027E223ULL,0xFEA0460CFFA1FFBFULL,
  0x00D61431004E79BCULL,0x00186A9B000EB25FULL,0xFFDDAF5B001115B4ULL,0xFFAA022500263026ULL,0x00216A0B005D2A75ULL,0xFF9DC38100515595ULL,0xFFB8F50F00FB2CBAULL,0x003BAD8EFFFF220CULL,
  0x00C62A8100680F9BULL,0xFF98127700784EE0ULL,0x000E9A200150DAECULL,0x0019067F00672C00ULL,0x0055C35C002752CCULL,0x0017BBA7002F4310ULL,0x00E5E6740014DC81ULL,0x014E2E87FF445B47ULL,
};

static const uint64_t __blob_Sigmoid_141_activ_ROM0[] = {
  0x000000000000C8C0ULL,
};

static const uint64_t __blob_Sigmoid_141_activ_ROM1[] = {
  0x0000C00000000000ULL,0x00000000C0000000ULL,0xC00000000000C000ULL,0x0208B77BF9EFFF01ULL,0x1D9A0666D4FE0CD3ULL,0xEE8F2EA20E6EE506ULL,0xF28FEE2F3146FD17ULL,0x24BAFA2FE7FD41AEULL,
  0x278E0BA5FE9403D1ULL,0x00003F8000000000ULL,0x000000003F800000ULL,0x3F80000000003F80ULL,
};

static const uint64_t __blob_Conv2D_146_mul_scale_149[] = {
  0x1C8015F41ADA1871ULL,0x0F810D360FBA1341ULL,0x163F0FFF1E2A1592ULL,0x11ED19CA0DF71975ULL,0x154714FA0D3C1B82ULL,0x21061586141E4D1DULL,0x1DAE219D34F420B3ULL,0x19521A9C16131435ULL,
  0x19D414690BE51FC7ULL,0x185F0E1313FD1331ULL,0x12DC1413105A18C1ULL,0x208511D1152D1E35ULL,0x26F310CD159C6071ULL,0x1BC814371A8B1322ULL,0x18AC162027761590ULL,0x0E61115F23B31FAFULL,
};

static const uint64_t __blob_Conv2D_146_off_bias_152[] = {
  0x01A92DFE0202CB64ULL,0x022561F9019FFBBBULL,0x023592D302421EA4ULL,0x01F95F3902828F41ULL,0x015C8560015DB475ULL,0x01BB656A021DA6A0ULL,0x02048CE001677D7CULL,0x02072D6A013E1185ULL,
  0x024952B301D90ED9ULL,0x0180D8E401DA4546ULL,0x0246B4090131A4AAULL,0x019B688F01B92EEFULL,0x016BFC0F0160FE2DULL,0x016542FA0137F43AULL,0x01BCB518016E298CULL,0x01B709E201D21197ULL,
  0x027C6DC2014B7612ULL,0x0246EA9301D57F51ULL,0x0223623C01C3215AULL,0x01CED8B40275B4B6ULL,0x01AEB5E801856E52ULL,0x01EAF3A801DCA70BULL,0x016362880129FB48ULL,0x0162FE78027C3018ULL,
  0x018F0DCC011D4AB3ULL,0x01771AF801CEF849ULL,0x01A900950282C488ULL,0x016DD84F01D11CECULL,0x0014C05A01E17CC3ULL,0x0197C77101C4B0B1ULL,0x01AB579B0191E7C5ULL,0x028008AA01F36187ULL,
};

static const uint64_t __blob_Sigmoid_149_activ_ROM0[] = {
  0x00000000000000C0ULL,
};

static const uint64_t __blob_Sigmoid_149_activ_ROM1[] = {
  0x0000E00000000000ULL,0x00000000E0000000ULL,0xE24304A70146E000ULL,0xF3FFE2BB03B20BFDULL,0x161AFE08AF9566B3ULL,0x1FC00000000000B4ULL,
};

static const uint64_t __blob_Conv2D_157_mul_scale_158[] = {
  0x1661395031B64322ULL,0x3E913CB5338D2409ULL,0x35043367330D1544ULL,0x3FE21B8A2D914391ULL,0x323332E92A933552ULL,0x52E844E433BA29FBULL,0x4828269A33854BADULL,0x40212C7731C92BA7ULL,
  0x3017424D384240DDULL,0x337140A048C0637FULL,0x3F4C3D483B7A47F6ULL,0x76142C8943D12FD3ULL,0x45E636AE3BCD3051ULL,0x33614FE932BC6ADBULL,0x390B465E46592AD6ULL,0x38722F27361C2FD0ULL,
};

static const uint64_t __blob_Conv2D_157_off_bias_161[] = {
  0x00D57CC10134A0C3ULL,0x01F732CE01354AD5ULL,0x0165ADDF01E1C94FULL,0x015779F1028B1684ULL,0x0155B1E702B7B0BBULL,0x013ECA4C016DCAA5ULL,0x00CEB79F011E5F24ULL,0x0102E521020E2DC8ULL,
  0x0122B4FD00BCCBC4ULL,0x0197909700D9A704ULL,0x01CD3D8A01648228ULL,0x00FD824601094162ULL,0x01029ABA01890393ULL,0x00E15D1800F71EDFULL,0xFFFD7F580148D7D1ULL,0x01F69CDE01573320ULL,
  0x0135F5D900C889A1ULL,0x0047259D0093503CULL,0x0164D5C4030179E1ULL,0x00C650F200DF86CBULL,0x00F79FADFF6C0322ULL,0x0107484201765392ULL,0x00DEB48C00D0CB42ULL,0x0115DCB101BDFA98ULL,
  0x01292A30011552AFULL,0x01B88FF5021E1C55ULL,0x014F838B014E3D02ULL,0x019E73B700A8C42FULL,0x0050927E018673DCULL,0x0132066300CBB4E1ULL,0x015A459C00DD1954ULL,0x0142C63600A2DBF6ULL,
};

static const uint64_t __blob_Sigmoid_160_activ_ROM0[] = {
  0x000000000000C480ULL,
};

static const uint64_t __blob_Sigmoid_160_activ_ROM1[] = {
  0x0000C00000000000ULL,0x02A50057C0000000ULL,0xCF720DDA038AC55AULL,0x016CD03610C00A00ULL,0x4500F800C6692294ULL,0xBB8D3933F99AA6DCULL,0xFF2BFAA81955FDA1ULL,0x000000001F510A56ULL,
  0x3F80000000003F80ULL,
};

static const uint64_t __blob_Conv2D_165_mul_scale_167[] = {
  0x0EC013B513F00D6EULL,0x0CA007FF0CD30D05ULL,0x532A0A9A0D700E4AULL,0x10F90B650EC91806ULL,0x0DE90EB3117F0D09ULL,0x0B5D0A7B0E150E86ULL,0x0C640C70111A123AULL,0x0CC00C9A109A0BDAULL,
  0x08470C9B08BC0E28ULL,0x086E0AE6128F12D7ULL,0x0CF3091F149C1036ULL,0x0F1F0A550ED81737ULL,0x0C5812560AFD0B20ULL,0x13650C88105E0EE7ULL,0x11BD129016090BD0ULL,0x0BF70E79174D10BDULL,
};

static const uint64_t __blob_Conv2D_165_off_bias_170[] = {
  0xFFC28E7AFFE5FD8EULL,0xFFFFE864FF67FC84ULL,0xFF319CA700889E26ULL,0xFFC385E4008B94FFULL,0xFFC7F0FCFF186653ULL,0xFF7104A8FFB1F32FULL,0xFF36A5C5004F1E0BULL,0xFFC9852A006BE648ULL,
  0xFF87E1BAFFD49A89ULL,0xFF79C15E004694BEULL,0xFF4A3E4F007F13A7ULL,0x000C1FA4000F1004ULL,0x00212F940070C06DULL,0xFFA6FED2FF337BBFULL,0xFF9C4B26FFDC3884ULL,0xFF2A9F60FFFF77E0ULL,
  0x006374D9FEFCE96DULL,0x00833F610038FC26ULL,0x00207859FFAE1EEBULL,0x00AAB3B400CF5151ULL,0xFF968495FFE0A727ULL,0xFFC5286400466B20ULL,0x00A8C82300C7C84BULL,0x00182E650082076BULL,
  0x002423C90005DACFULL,0xFEF929E9FF547A9BULL,0xFF4D10090015AF2AULL,0xFF543239FFF9DAF9ULL,0xFF21D840FFC79F17ULL,0xFFDA2537FFF30F97ULL,0xFF1DC715000FB118ULL,0x00A42D7800AB0488ULL,
};

static const uint64_t __blob_Sigmoid_168_activ_ROM0[] = {
  0x000000000DC58100ULL,
};

static const uint64_t __blob_Sigmoid_168_activ_ROM1[] = {
  0x0000C00000000000ULL,0xFCA3FF21C0000000ULL,0xE47322D108B1BD8FULL,0xF8E4FC0E4D551C72ULL,0x5000E666FBB2478EULL,0x08103A00F000FB80ULL,0x0000185C2300F800ULL,0x00000000390002ABULL,
  0x3F80000000003F80ULL,0x00003F8000000000ULL,0x000000003F800000ULL,
};

static const uint64_t __blob_Conv2D_177_mul_scale_176[] = {
  0x303320ED18321423ULL,0x19BA2F1F13CB3A4BULL,0x25B522D51CE227A9ULL,0x23E819BF209A1A40ULL,0x1D232572216C6EF3ULL,0x270E13F91C70257EULL,0x18952CCC15540C19ULL,0x24E437A424A01D06ULL,
  0x181A2B6A23BE2CA1ULL,0x196813A11C953185ULL,0x24EE136731152E17ULL,0x2D6827F7258F1D3CULL,0x34DC22DB1AC52F50ULL,0x2A202E09267A2C0DULL,0x2A7D213F1B221C56ULL,0x349421571B882565ULL,
  0x2CF01DDA23B733C5ULL,0x24BB1B3326B12128ULL,0x1FA22420105B20D2ULL,0x25492AE4323B1E1CULL,0x229A28FB266D1547ULL,0x346B309E28C71661ULL,0x2028254C1D852450ULL,0x22872BEF13B8121AULL,
  0x0FD92117214E20CCULL,0x263026A02110150BULL,0x233D294213101A05ULL,0x13EF16EE1D651D1DULL,0x30B1235E207B2E4EULL,0x2D991CE9170319C6ULL,0x2C262D79211A2A96ULL,0x2439153F5370209AULL,
};

static const uint64_t __blob_Conv2D_177_off_bias_179[] = {
  0x002E7ECB00648EA5ULL,0x008F0B9D00E8FD99ULL,0x0134D751011FAD0AULL,0x006A47E9002A505DULL,0x00D0E144FFCB61CEULL,0x00438574FFCE808BULL,0xFFFC7D17FFAD9485ULL,0xFFA125DB000BABC7ULL,
  0xFFC2A420002C9930ULL,0x00B9535900B0F68CULL,0xFF8314EBFEF97100ULL,0x005F83CC0006E30EULL,0x0044956800BADD8BULL,0x00B7B1D400170818ULL,0x00387CF5FF9CE81CULL,0xFF20A164FF84C9C5ULL,
  0xFEF42C2901B4DFFBULL,0x004E20A9007521C6ULL,0x00E54A6E00C31C40ULL,0x003F5A5200B59348ULL,0xFF44BC4AFFE2DA02ULL,0x004C248D00763F5CULL,0x001391F3015B7686ULL,0xFFB4187E001BD995ULL,
  0x002D9425004BAFD6ULL,0xFFAF7EB400883A88ULL,0x0131CFD9FFF919E4ULL,0xFFFD521E00ED9837ULL,0x01C4D4360068CB0BULL,0x00CA40ADFFA2E5EFULL,0xFFE465B0FFEE1B9FULL,0xFF199D9300560C77ULL,
  0x00BF16DFFEE7348FULL,0xFFC850FC0078DF7BULL,0xFFED7258FFDF4E36ULL,0xFF66B846FFFEE10DULL,0x00F3E520FFF03076ULL,0xFF704FED00F6085CULL,0xFE81A960005DBF5AULL,0x00A089E4FF0582FBULL,
  0x00CC7F2A00E1ED95ULL,0xFFE5E44B009F92BCULL,0xFF09759300958754ULL,0xFF1C0EE8003614F1ULL,0x0093EA20004E169CULL,0xFF2531A400C4F9A6ULL,0x00D4719800576D09ULL,0x0035DFBBFF95779CULL,
  0x0015B326002606FAULL,0x00F63EE000B6860FULL,0x00B1E5ED00C5B94EULL,0xFF20165BFF96A892ULL,0x008A479700AD4DD6ULL,0xFFA595E400D903D6ULL,0xFFF83B60FF4A37DBULL,0x002B5C790098E044ULL,
  0xFFBEB7EE00D76065ULL,0xFE3D591A004352B7ULL,0xFFC819E500A2A384ULL,0x006DAA86FFAE13AAULL,0x008FC07BFF4798B5ULL,0xFFB440DAFEFF4FF8ULL,0x0190B16900711F24ULL,0x0109ED56002948CBULL,
};

static const uint64_t __blob_Sigmoid_180_activ_ROM0[] = {
  0x000000000000C480ULL,
};

static const uint64_t __blob_Sigmoid_180_activ_ROM1[] = {
  0x003CC00000000000ULL,0x1CB701DFC86905ACULL,0xFAF3582E093FDC56ULL,0xF666FAB0577BFB03ULL,0x34D9FC1FF94A62CDULL,0x2BD81107FF1610AFULL,0x000017312400FE00ULL,0x000000003F800000ULL,
  0x3F80000000003F80ULL,
};

static const uint64_t __blob_Conv2D_185_mul_scale_185[] = {
  0x2B8636101FA02F18ULL,0x2F3742A73F332774ULL,0x2418294D57703373ULL,0x295E28B12C5237ADULL,0x40892C12546A4BD2ULL,0x1B3A2BFD241922FCULL,0x26CE2E1426BB4DC1ULL,0x27FD2DDD1D273B8AULL,
  0x4E332BCA1D243A7BULL,0x4B415BB22DDE563CULL,0x3B19221330AE2910ULL,0x5B4E2A2C28F43C12ULL,0x460B2A453278241EULL,0x26F724E925622692ULL,0x232A304431233F3BULL,0x30CA36AC58282DE5ULL,
  0x2CCA31DB1AD8319AULL,0x56992D393AE83B04ULL,0x2D233C962C1130B2ULL,0x2D341EB824635262ULL,0x21132AA12C4429C6ULL,0x2C15289B2D8152FAULL,0x3CB0244B3D7A257DULL,0x30343CA6225E36DBULL,
  0x344D3D1F30302E02ULL,0x223C38A561FB3527ULL,0x1B28259B3E853203ULL,0x4C0E31AE3B8D2482ULL,0x1B3C29A048CA36A2ULL,0x388C27C667872440ULL,0x26FC3CAC20E3290DULL,0x29E337D12CFD29D2ULL,
  0x42852DD51DE62378ULL,0x387C399E37DE35DAULL,0x5913220C23BB2E1DULL,0x75923D052A362ECAULL,0x28582ABA4C522AA1ULL,0x2E6B324831944618ULL,0x260E453A38ED4896ULL,0x363429B7295C33F0ULL,
  0x42813E92421C39F6ULL,0x415825FF2A69309CULL,0x255C2ECF3BBC2D01ULL,0x79EE2ACE2ADA3478ULL,0x214F343D43EB334CULL,0x243948463CB7389AULL,0x20A242552A7653DDULL,0x2FA52F361E4A245FULL,
  0x2E762F462CD42E2BULL,0x41462130335F5578ULL,0x350F177D6FD834D6ULL,0x2F3620C938704A4DULL,0x1AD429B448C82AADULL,0x1E152BA12C193E78ULL,0x29C43F2B307D20FBULL,0x3D0F22F32FF43998ULL,
  0x2E1739E31F9A3A81ULL,0x314E269C24761F70ULL,0x2204278E224E3237ULL,0x2E222835360A3F63ULL,0x1DDA257127EC2CBDULL,0x3C4929AD31332A3BULL,0x217042FB24722EFFULL,0x1A171EA320D43ACAULL,
};

static const uint64_t __blob_Conv2D_185_off_bias_188[] = {
  0x00F226CC0078192FULL,0x0065A80600CD572EULL,0xFFCD1C4600CFF361ULL,0x00727D93FF811A9BULL,0xFFA366B1FF4D69ACULL,0x0094378AFFFD1BB6ULL,0x01314ECBFFCDA4DBULL,0x00B70547001EEB0FULL,
  0x00DF809E00641D51ULL,0x0019456600D81299ULL,0x00F0383A013AAF20ULL,0x00C17C4D00CB5198ULL,0x00DCC4E8004A1E66ULL,0x005DAD5A0091EA4DULL,0x00ADE33B009394A7ULL,0x00D9522A0012C842ULL,
  0x00D34AF9006F0E7BULL,0x010B4CD3007F0F61ULL,0x00846FC4004DA417ULL,0x006BBC85FF76D86FULL,0x02271DA900CADD16ULL,0x007712F901205689ULL,0x00927B12FFCD39F5ULL,0x003F697600A1788AULL,
  0x00085200008ED40FULL,0x0091067E00156B38ULL,0x00C95FD200A1E158ULL,0x009657FE0152E2E2ULL,0x00BDA59B0119D6ABULL,0x00FD449200728049ULL,0xFFFBEB5600B4AE3CULL,0xFFF196B600506ECFULL,
  0x019B3520FFF8BA30ULL,0x01993BCA00ADB7E4ULL,0x0009C8280071CD2DULL,0x00CE17BD00AEE4C5ULL,0x0095B98C007354BBULL,0x00EF9BBAFFF41B5DULL,0xFF86A333FFF54247ULL,0x0042BFA7004A7B50ULL,
  0x003091F200851716ULL,0x00BB290F008DB11AULL,0x00A77836FFFD9468ULL,0x00C7C4790089037BULL,0x00F88B6600969AF6ULL,0x0028AD44010BF5F1ULL,0x00EB7AAB0063D0F2ULL,0x00B8B5EFFF797FF6ULL,
  0x0048E1590066C43AULL,0xFFE7C488006713EEULL,0x001BD4B000C5CCFDULL,0x0046E40600D209CEULL,0x00B52E4E0055CD9BULL,0x010EAD1A0078E708ULL,0xFFA2991E00D07301ULL,0xFF4B7A00005C7D91ULL,
  0x0010ABFB00512A83ULL,0x015EE0C700BC94BBULL,0xFF9A6F4C0056D946ULL,0x0055E98000EC1077ULL,0x00F1DDEA005D80FDULL,0x00FC942E00774ABBULL,0x0066F6D9012B0429ULL,0x00EDA628FFF85C19ULL,
  0x00973B3800DE99C9ULL,0xFFA6BF8300E4B8A1ULL,0x0029D9D800ECCDC0ULL,0xFFD5648FFFC5156AULL,0x011C028100C2197EULL,0x00FE64820066D235ULL,0x013C749200CD4442ULL,0x011C38DA009F23D1ULL,
  0x002E8FC70009C86FULL,0x009F28BB00C2DBD6ULL,0x018E871DFFE94DC9ULL,0xFFBF9DAC003B4D78ULL,0x005BBB3200B598A8ULL,0x00665009FFF73456ULL,0x00BB2390FFF61323ULL,0x00E7912600CB41E3ULL,
  0x0037C340002595B3ULL,0x0046D76A007C34A1ULL,0x00EB796000C8D58FULL,0x00472B3B0078C871ULL,0x00B7045FFFE69A53ULL,0x00D45AAEFF8E275DULL,0x00407F4800D31FE8ULL,0x006914DA00F10369ULL,
  0xFFD56F3B0067F97CULL,0x00B693D0FFE88EBFULL,0xFFB6A7E900C409DDULL,0x006CC4D300959E0AULL,0x012895B4005EDC88ULL,0x00B0B2FC00FD526DULL,0x00EC81E3018760FEULL,0xFF951CACFFED54A5ULL,
  0x003C922E00F93A0AULL,0x0091E41700A074ADULL,0xFFFDC10E0030E2FCULL,0xFEAF70D200BEC337ULL,0xFFB76E87001EFE7CULL,0x009F8D52017E0687ULL,0x00C948C20115BD38ULL,0x001E146A008992EFULL,
  0x001EA8420100C5B5ULL,0x0178764C0042BC81ULL,0x00B30A7D008557F2ULL,0x00E103C0001983EFULL,0x009E0E0C00E52EBAULL,0x007F3243FF8D8E9CULL,0x007BAD1300800FF4ULL,0x008AAB110062098EULL,
  0x01894750FFD6AFB2ULL,0x00AA76340061E257ULL,0x009C4A8000D8BBC5ULL,0x00CC5E3E013E3EA3ULL,0x0001B01A014A4DCAULL,0x017AAFC400776575ULL,0x006E0B42FFDB906DULL,0x003ECDB9005FE391ULL,
  0x00D76E0F0034A5A2ULL,0x01ADF82100922AB6ULL,0x011AEB59008FF85FULL,0xFFCD7E60006F3149ULL,0x0067537D011FC67BULL,0x00F07C8C005A47FEULL,0x0080046100A1E013ULL,0x00B42D92010899BCULL,
};

static const uint64_t __blob_Sigmoid_188_activ_ROM0[] = {
  0x000000000000C480ULL,
};

static const uint64_t __blob_Sigmoid_188_activ_ROM1[] = {
  0x004AC00000000000ULL,0x0F8B0101C9CB06D2ULL,0xDE092E6A0548CFBAULL,0xFD04DE45350E0539ULL,0x6F1CF8E4D7045381ULL,0xEACB46C5FC2CCBABULL,0xFF45071F2974FE10ULL,0x0000000022DE1249ULL,
  0x3F80000000003F80ULL,
};

static const uint64_t __blob_Conv2D_192_mul_scale_194[] = {
  0x45263E743E933DB6ULL,0x3FE23ABC332E5306ULL,0x329A2F1342F03729ULL,0x471C449039533DEAULL,0x36012E4438E56663ULL,0x4A38396034843018ULL,0x430035712DFD3E9AULL,0x2F69463B613F41FDULL,
  0x38FE45DE3D9134C6ULL,0x43FC3C733F187BA8ULL,0x3427366C33DF39AAULL,0x3C8E36AB3E6D3E97ULL,0x3AAB447F30FA289FULL,0x38D83596529A33B2ULL,0x4C2440F650C16F76ULL,0x41F2704F382A352EULL,
  0x37E942A950672A7DULL,0x646E32D541DA4E9AULL,0x43143AE6474253BEULL,0x2B883D8B409835EDULL,0x3EA943C636BD3F84ULL,0x4E44385228163D44ULL,0x2EC230163D142EE2ULL,0x464E3DA933643281ULL,
  0x346A525B35F52CBCULL,0x399A44014085346BULL,0x2B003147364F2D50ULL,0x373F3D4F4B8435B2ULL,0x3AF5461962975231ULL,0x2E5A451F36783333ULL,0x3D2F37C73EDA3A9DULL,0x3D79369831605AFFULL,
  0x26B8458829A62C9AULL,0x2D1911A53BA038B8ULL,0x30D9200C46C6214CULL,0x27B92BE52EDF2F5EULL,0x1CF727554DC024D3ULL,0x2EBE2BA736183A5BULL,0x185449DE28B34244ULL,0x43A627002514122FULL,
  0x24F134113F87229FULL,0x21FF30A228EC3EFDULL,0x164E35230CA82E29ULL,0x19D3326C557B2B6FULL,0x15FC2507233A2986ULL,0x30E6346A2D5242B2ULL,0x2C152DAC37CA1B67ULL,0x389629CE3C663553ULL,
  0x1EBC4F6A29C53BDDULL,0x225C2D40377E2E2DULL,0x35F420692AF13C36ULL,0x3DAD30652B52246BULL,0x1E8C283F1F97244DULL,0x2C9821071D922650ULL,0x2AF8349913461874ULL,0x296B367344DF1EF9ULL,
  0x3C6B2240320625A5ULL,0x435E32F427651DACULL,0x2D0B25432DCA352CULL,0x21511EC528F81793ULL,0x4A0B335029062861ULL,0x1DD737710BF41DCAULL,0x1B9D2CE512BC1CFEULL,0x283B26B3265A224DULL,
};

static const uint64_t __blob_Conv2D_192_off_bias_197[] = {
  0xFF3C7D70FEFAC609ULL,0xFF906054FEBF84F9ULL,0xFEEDC76FFEC605BAULL,0xFEB019BBFFA03872ULL,0xFF37BEA2FF52A027ULL,0xFF4CC773FEE74A10ULL,0xFF5BFCE2FF11E878ULL,0xFEC5216AFF536948ULL,
  0xFF363845FEB1551EULL,0xFF10B38EFF602DBAULL,0xFEC1667E001CF3BDULL,0xFE7BD81DFF7F6CB6ULL,0xFF5EFCA9FEC46FF2ULL,0xFF508DD3FF9D104BULL,0xFE97BE48FEFB7B12ULL,0xFEF844BEFF27293BULL,
  0xFF1E9DBFFFC5FE87ULL,0xFF6DCBD7FF5FFF7FULL,0xFEDB9388FF1552E6ULL,0xFEA69571FEA2D6F1ULL,0xFF237D70FF8FB292ULL,0xFF32AE0EFF637621ULL,0xFE4663BAFEA1EBEAULL,0xFF2CEAB5FF3A3813ULL,
  0xFF367D64FEB48C1EULL,0xFEE25E47FECC5EBAULL,0xFF26AA21FF2FE56FULL,0xFED81CA8FF2FE754ULL,0xFED271E8FECEB615ULL,0xFF19034FFF58AFBDULL,0xFF38ABB6FF2DB371ULL,0xFEDFE408FEC03F7FULL,
  0xFEE33452FF716024ULL,0xFF3FB549FF5D1F2DULL,0xFF3A23DEFF1F89F1ULL,0xFE92461FFEEFCE06ULL,0xFF1F2D2AFEFED31BULL,0xFEA6FF38FFE63667ULL,0xFEEAB2CEFEF10D00ULL,0xFF77C86EFF0946D0ULL,
  0xFF9A8674FF3678B9ULL,0xFEFF00E1FF4916F5ULL,0xFF9E625AFF259427ULL,0xFEE6E3DCFEF59990ULL,0xFF0EC85BFFA27FA6ULL,0xFF2C4393FF55AAD9ULL,0xFED1398DFF83C885ULL,0xFEFF3C04FF576DB2ULL,
  0xFF30CFA5FF38285EULL,0xFF7DFD87FF610E0AULL,0xFED0F7A3FF46EC78ULL,0xFECAB86AFEA8788BULL,0xFEEB35A5FF6CAD1EULL,0xFF66A90EFEE8D154ULL,0xFEA1E032FF39CC8CULL,0xFF0F103CFF8029A8ULL,
  0xFF0AE7B8FF07ABA9ULL,0xFF18A0F0FF466BE3ULL,0xFECB35C4FEE7C871ULL,0xFF310616FED7919BULL,0xFF08ADBAFF188002ULL,0xFEED37B4FF72C1DAULL,0xFF33E63BFEC8063CULL,0xFF61989CFF53C8ABULL,
  0xFE8AA91BFEDAE0DAULL,0xFF05F0A3FE7AA863ULL,0xFF4B0CA8FE967B24ULL,0xFFF1049EFF7D3F47ULL,0xFE7B504AFF2949FCULL,0xFEA0DC30FF04E267ULL,0xFEC65B7BFE7D7BB7ULL,0xFEDD6A68FF555DFAULL,
  0xFF8BCF40FE9F9FADULL,0xFF5E3B2CFF06E231ULL,0xFE90A3BAFE89071BULL,0xFEC85D92FF515403ULL,0xFEC33B73FE586B62ULL,0xFF5B667DFE7B020DULL,0xFF29B432FFA34354ULL,0xFE4105B7FEB26F55ULL,
  0xFE80107CFF2171B5ULL,0xFF353764FE694343ULL,0xFEB47571FE669714ULL,0xFF5A02A9FEB67565ULL,0x0005CB96FF220F90ULL,0xFF3A2623FEB16556ULL,0xFE235C6DFEE56DBFULL,0xFF277DD2FEB815C9ULL,
  0xFF0A8E0DFF00CE5BULL,0xFF9E6C22FF073641ULL,0xFF852FA3FE90FA11ULL,0xFEECC464FF0718F9ULL,0xFE24CB8AFEFF217AULL,0xFE6BE22BFEF12590ULL,0xFF014B4DFE8F7BE6ULL,0xFED7A7C7FEFC1BD5ULL,
  0xFE75BEACFEF7FEEAULL,0xFF6173D2FF3C916FULL,0xFEFDB0CEFF66A80FULL,0xFF32ECDFFEC92B1DULL,0xFEAA292EFE2A8392ULL,0xFE9C3E25FF135577ULL,0xFECD5B58FF7C66DFULL,0xFE6B24F6FEEEC1BFULL,
  0xFF2D6FCEFF01A292ULL,0xFF32E617FECE5ACFULL,0xFF4C460EFE6E5F1DULL,0xFEE6015BFEBF4C90ULL,0xFF28BA77FF05C1B7ULL,0xFED3CA9BFE5E9689ULL,0xFE3E12D9FEF7640AULL,0xFED14042FE837EF3ULL,
  0xFE7C8D7EFF2E053BULL,0xFF66574AFECC3290ULL,0xFF2BB2C3FEFF5094ULL,0xFEC17B8EFEE38904ULL,0xFE4A5C97FEA60231ULL,0xFEC065DEFF2A4FF2ULL,0xFEAA9065FF6087E9ULL,0xFF14D242FEB7158EULL,
  0xFF0081BAFEEC7FEAULL,0xFE2D7F78FE8035D9ULL,0x00ACB6F7FF283E8BULL,0xFEF164A6FE64889EULL,0xFF63CB6DFEFEFB2BULL,0xFF2BE48DFEED118FULL,0xFF809694FED5D1C9ULL,0xFE3CBA21FED8F497ULL,
};

static const uint64_t __blob_Sigmoid_195_activ_ROM0[] = {
  0x0000000011C9C100ULL,
};

static const uint64_t __blob_Sigmoid_195_activ_ROM1[] = {
  0x080089F701B20023ULL,0x1066022269483D00ULL,0xC2DA10EF0222C02FULL,0x11110FC82F000800ULL,0x4C0010004DF75089ULL,0x3D2441EC0A3D4540ULL,0xEAAB32382D71F5C3ULL,0x3133ECCD322B2EABULL,
  0x40B91CE4F8E42F26ULL,0x0000675505550000ULL,0x3B55F555715502ABULL,0x7F0000000000DA40ULL,0x00007F0000000000ULL,0x000000007F000000ULL,
};

static const uint64_t __blob_Conv2D_201_mul_scale_203[] = {
  0x0CEF12BB0D9A27D6ULL,0x0B7F0E690F690DE6ULL,0x1AE30DA017B71B11ULL,0x137B0C4312120F2DULL,0x0D90155E120C1223ULL,0x0CAF08970D2F13A0ULL,0x163C133D0C06119FULL,0x1109168F1C4B17F2ULL,
  0x1A5B0F360A54136AULL,0x0EF00E9F16470C95ULL,0x21D00ED918EA11CCULL,0x159B0D820C610BF9ULL,0x12B50F7E10EF1546ULL,0x11510ED711A31455ULL,0x094601F712EB2318ULL,0x13AF19B315E013BFULL,
  0x147218D00D281F37ULL,0x0B4610EC0C6212E4ULL,0x0BCB15EC0E261F4BULL,0x0B400EBD0F8F18FDULL,0x0F4E12E011AC0F36ULL,0x139612E50FE00C53ULL,0x1FDA0FC60CC7144CULL,0x47F712CE17E51568ULL,
  0x0C21136D12890EACULL,0x0F531A4D14A4120DULL,0x12580F70178C16C5ULL,0x13F318AF0DDE15FFULL,0x10A4537F0BE10F60ULL,0x0F3612C310C91150ULL,0x1911174C18DF10B5ULL,0x169014620EFA105BULL,
};

static const uint64_t __blob_Conv2D_201_off_bias_206[] = {
  0xFF59F0D1FEDF016FULL,0x00BC28230019E155ULL,0xFF739040FFC193BDULL,0xFFEAEE100049B4D0ULL,0xFEE29B5FFEE71695ULL,0xFF7757C1FF56D911ULL,0xFF0F0B250000246FULL,0x004767F3FFF0D0B1ULL,
  0x0022FCB1FF128B35ULL,0x00093311FFDA6B79ULL,0x00375BFD0039EB25ULL,0x002B05C90074FE6EULL,0x002332C3FEECD894ULL,0xFFD987C8FFDD9EC1ULL,0xFF70D352FFAEA03AULL,0x003482870071D5BBULL,
  0xFF5B6BC400081DA7ULL,0xFF4DD69F00991580ULL,0xFFE9B7A400233829ULL,0x00AB24D3FF9263D7ULL,0x00265C43FF7BBD3CULL,0x00578989FFBDFFAEULL,0x001707AD00876529ULL,0xFF6B25F1FFF8A630ULL,
  0x00B9F99EFFBEBE60ULL,0xFF15937EFFFA7BF7ULL,0xFF3052FB003D576FULL,0xFF2D51E8FFF292E8ULL,0xFF9F81E3FE3BA944ULL,0xFFB46F6401C54EA0ULL,0x0095DBEFFF1FD614ULL,0xFF8140C300C9942BULL,
  0xFF893107FF8D9400ULL,0xFF2DF01AFF8246C2ULL,0x0092FA0CFF7A36F3ULL,0xFEE9575A003EDC58ULL,0xFFD8515EFE7E04D9ULL,0xFFF2D706FF10A54EULL,0x001DD9C9006A5961ULL,0x0033F722000D7C80ULL,
  0x006FDD570096D6BDULL,0xFFE63D8000325E5DULL,0x004D1A3AFF9D7A62ULL,0xFF97A7A40032677BULL,0x008708CB00166C98ULL,0xFF4B2AAC003D68B5ULL,0xFFEE051DFEFFF02BULL,0xFF68733FFE823649ULL,
  0xFFF39B73FF811AC5ULL,0xFFD61516FEE2E9EAULL,0xFF3599E0FFE2AF37ULL,0x0036B1ADFF0F2681ULL,0xFF57D326FFB67D31ULL,0x0017B008FF42EDA0ULL,0xFF7435C7000AA8ECULL,0xFF1A8FFFFFEB4286ULL,
  0xFEE34653FFC65327ULL,0xFFA3EE87FF642A70ULL,0x00247276FF105A22ULL,0xFFA7C4EFFFB6925CULL,0xFDCE155A0011AA88ULL,0xFF1F141DFE7522B0ULL,0x0013BE86FF793AF7ULL,0xFF7F5B2EFF63084DULL,
};

static const uint64_t __blob_Sigmoid_204_activ_ROM0[] = {
  0x00000000000088C0ULL,
};

static const uint64_t __blob_Sigmoid_204_activ_ROM1[] = {
  0x0000C00000000000ULL,0x00000000C0000000ULL,0xC4C802000000C000ULL,0x033BCEB70CCD00B6ULL,0x52000800E51D2ABFULL,0xFD9B5C920925F964ULL,0xFDD0FD015F47F6DDULL,0x000000001F112187ULL,
  0x3F80000000003F80ULL,
};

static const uint64_t __blob_Conv2D_209_mul_scale_212[] = {
  0x0F2708C0152B08DDULL,0x0CDB0B830BCE0AEBULL,0x08240D680D8C099DULL,0x17832B9D0B7A09D2ULL,0x0BED098109400CE0ULL,0x07A109960D620729ULL,0x095908780AF20678ULL,0x10B208320B030599ULL,
  0x1778089207A106D5ULL,0x0B110B8006E30F3CULL,0x063108970BDC0D5DULL,0x0B9D0B67066D09FDULL,0x0E210AE40CA40A9CULL,0x09C50CDC096206EEULL,0x0A600B6A0C6E130CULL,0x111C0995086D4389ULL,
  0x0A74086F08520F32ULL,0x080A0A36082F085DULL,0x084C09B30EAA08B8ULL,0x094210A208D40819ULL,0x0C060D480BBD0A17ULL,0x08A609D107730C06ULL,0x075808CB08F00A9AULL,0x08BA0ACA08A908D7ULL,
  0x0B5006F70AF70C8CULL,0x0A910914067B081EULL,0x0AF8099D0B9008E6ULL,0x09E30A2F0AB70D9EULL,0x07DB09A8121B06E1ULL,0x08BF08390CE20EE1ULL,0x081F07DF0BF107EBULL,0x0C800B090B240A7DULL,
};

static const uint64_t __blob_Conv2D_209_off_bias_215[] = {
  0x00C57545FFEE92F7ULL,0xFF75E1F8FF38D67CULL,0xFFCEF9B0FF745FACULL,0xFFB5B702FF294236ULL,0xFF9D18E5FF65BA16ULL,0xFF9D0C85FEF975C5ULL,0x00CEAC15FFA35DDBULL,0x027D74FCFF9DACBCULL,
  0x0007BE76FF5A6B29ULL,0xFF28BF4DFF78801DULL,0xFF56887EFF650EDAULL,0xFFB42D20FFF60C59ULL,0x00210A86FFE54052ULL,0x0056D3FE0114596EULL,0x001EA8A4FF822482ULL,0xFFD60D4CFFB849FAULL,
  0xFFEEDD9200336AB0ULL,0x0106D633003E5010ULL,0xFF97996CFF5CA6ECULL,0xFFE83F30FFB7E729ULL,0xFF9ACB7BFFFE74D4ULL,0xFFBF86F6FF0B65E6ULL,0xFFFB3F81FF73E62BULL,0xFFD7EFF5FEBBC05BULL,
  0xFF735A8BFFA9231CULL,0xFF537B700040F83EULL,0xFF6312F6FFF5726AULL,0xFFBB1150006DEA5FULL,0xFF389C9BFF3DEFEDULL,0xFFE18392FFFB8FCDULL,0xFF80A330FF54C03DULL,0x01237C2F0038557DULL,
  0xFF4CF0780006D949ULL,0xFF54E433FF8974FCULL,0xFFA1BB66FFEC4F25ULL,0xFF6EB98800D5B002ULL,0xFF6166D9FF50DE39ULL,0x003B34BD00552219ULL,0xFF3D9DD90087A9E2ULL,0xFFAB557CFF3FDF72ULL,
  0x006AE55D000C0F4CULL,0xFFB96797FF71B957ULL,0xFFB76CA1FEEBCD1BULL,0xFF7DB88CFFB94C01ULL,0xFF2CBAAAFF74A774ULL,0x00194BCDFF06147BULL,0xFED98707001C8F75ULL,0xFFCCFD9E00111840ULL,
  0xFF90778EFF79D348ULL,0x004BCE5CFF6A9F5DULL,0xFFFCCA6CFFD5F2A6ULL,0x0013F863FF140373ULL,0xFF60D74EFFBE02ACULL,0xFFDD6E3B0016DD06ULL,0xFF9EDA47FF33D329ULL,0xFFCF25F7FF96C87EULL,
  0xFFE5CAF0FFB4CF77ULL,0x013D8111FFA719AAULL,0xFF110CB7FFCD4D84ULL,0xFFFA8068FFE31D4DULL,0x01958D5FFF83D2A1ULL,0x0048351FFF711E7CULL,0xFF8E67EE009A8E84ULL,0xFEF01E72FF57CFA4ULL,
};

static const uint64_t __blob_Sigmoid_212_activ_ROM0[] = {
  0x000000000D89C100ULL,
};

static const uint64_t __blob_Sigmoid_212_activ_ROM1[] = {
  0x0000C00000000000ULL,0x149F02D8C0000000ULL,0xDC0E11C702D8E528ULL,0x0555E08417330444ULL,0x40720FA5E9831E00ULL,0x1A10640020000624ULL,0xE5D110AB42AB0000ULL,0x1C73F8D11080408CULL,
  0x2B2E0FCFFCF42250ULL,0x00003F8000000000ULL,0x000000003F800000ULL,
};

static const uint64_t __blob_Conv2D_221_mul_scale_221[] = {
  0x57C131B134FD3D2EULL,0x1CFE3F383997493FULL,0x2B1428632C1B2E54ULL,0x3A3D2F472AC73345ULL,0x35A92E2326FE37BAULL,0x514F3D7C33B82977ULL,0x340540FF412940D1ULL,0x37A231D628132D4FULL,
  0x2D2D3530303D3668ULL,0x31BD3E7D27163A60ULL,0x2A0635553D5E30DEULL,0x3AE93FA6301138D5ULL,0x3BBC3B2332E83AA4ULL,0x273E5A0F30161F57ULL,0x2E2D310039683744ULL,0x363133B23E0E31B4ULL,
  0x3EF034D04EF541BDULL,0x3E142BF6356B34B8ULL,0x3D02232728D32F14ULL,0x48682CF53B691C15ULL,0x382228B135FB2D7EULL,0x2C453A503B692251ULL,0x555438BA360D433BULL,0x31392A074C7229CCULL,
  0x3D3441673A323A36ULL,0x4A814079290A2A50ULL,0x493628BC32FD2A1AULL,0x4B8733C62F7B302CULL,0x3969296E36472CD3ULL,0x33666A392CCD302AULL,0x397F2BE728A12112ULL,0x2BC837D2286C325BULL,
  0x3A701D633C133267ULL,0x298233F63110337EULL,0x498835433083389EULL,0x26CA33F531572C66ULL,0x29014685368B288CULL,0x42BC2E254CFC2749ULL,0x32533AA233E2349CULL,0x2C9F3A0F3EAB34B3ULL,
  0x407326AC2D812EF6ULL,0x43EA229B355025B2ULL,0x47393C8F381833FAULL,0x38FF4E932E6030F4ULL,0x2A2832523FF022B8ULL,0x5D2943EE2EE6372EULL,0x3EE632AB341F32BFULL,0x2D05322927AC4976ULL,
  0x2AA137152BB63378ULL,0x2C5B2A0C319D361AULL,0x3BFD31AC3A644343ULL,0x4560242735933265ULL,0x39422B403C883903ULL,0x3D4B4787419E2B54ULL,0x36B52F66332D4B5FULL,0x4EE92D10342E427EULL,
  0x320E273E375B3079ULL,0x2BB928CA21A63030ULL,0x2DF823793B84314CULL,0x3282323831DE4243ULL,0x38F9492032AF27B4ULL,0x24AF39A62BE837B7ULL,0x5AE52ECD2C0638D5ULL,0x3A773744323938BBULL,
};

static const uint64_t __blob_Conv2D_221_off_bias_224[] = {
  0x010061F4021BD7F0ULL,0x011FE6B501EA2F37ULL,0x01DAE080019ED144ULL,0x020868110146901FULL,0x01A72BF801C25C85ULL,0x016F4686020838DAULL,0x01D332D4017D6ED5ULL,0x0217EE9301486C89ULL,
  0x02672024010E0D2CULL,0x0220DD240218F372ULL,0x01868F4201759316ULL,0x0183E1BC01CC1197ULL,0x02166A5C017791C8ULL,0x02B67820010F4706ULL,0x01BB275001B7046AULL,0x01D8A2D701D10865ULL,
  0x0209CBF901FA8F89ULL,0x01192F01019EA6E1ULL,0x0236AEF601EBE6E3ULL,0x0218ABA30210FBDBULL,0x0142BBB301CB4175ULL,0x01E44E6E01BFF7BCULL,0x01AD2F4E026B4B9CULL,0x01FFB6E302043C92ULL,
  0x02033B2C0141FB21ULL,0x019C0C7C01204804ULL,0x019A310701F62898ULL,0x020711B0017EDEEDULL,0x0240C35001600608ULL,0x01DCDC9A01C18F04ULL,0x01AC3DCB01DF3D52ULL,0x018A93DA0211ECA9ULL,
  0x011828020190A7F4ULL,0x0146E3BB019B5E7AULL,0x0208C5B80241BAEDULL,0x017E531D01A14DECULL,0x025E726C01BB25C1ULL,0x01DBEB3C02B55509ULL,0x02862332026D2E26ULL,0x01B9403E01B72D20ULL,
  0x01B23F1E01BAAFCBULL,0x01E42CB401F3CB28ULL,0x01FB2F7902207F8FULL,0x01571D14017B7888ULL,0x014913780110EC32ULL,0x011B77FC01942555ULL,0x016C10BD01F1AED7ULL,0x0172D90A0255BB78ULL,
  0x01E557B401B39C48ULL,0x0226C6E800EBA579ULL,0x0203FEAA01FC61AFULL,0x018671F901F06CFFULL,0x01C15B160194FD87ULL,0x01F1D83701D88905ULL,0x018E7AB601B2A549ULL,0x017729EA017FC2F9ULL,
  0x01A8D1D6014A6147ULL,0x022B41D9017EABD0ULL,0x01B18C2A01ECBBB9ULL,0x0201987D031CF87FULL,0x01B2AA08023468FEULL,0x021188240283114CULL,0x01450B8B02128731ULL,0x01DCDA67027E8B38ULL,
  0x0127666C014B3714ULL,0x024DA4D201FB953AULL,0x01CD257101FC2977ULL,0x01E68ED501B3EC47ULL,0x01FBA7280188DF10ULL,0x01B26BE001D22A3AULL,0x021AE235023C803CULL,0x01B3AB33026F8D87ULL,
  0x01EF9F7101D1B393ULL,0x0282146C01CA5830ULL,0x0183BDBE022D603BULL,0x024633E9022735BDULL,0x01AA25D201B59940ULL,0x0226F1CA02046848ULL,0x01C526F9011D171CULL,0x0242B95201FAE5BEULL,
  0x01CE981C022AD7ADULL,0x0182400B01B4C355ULL,0x0160C44B020A5B32ULL,0x020DBF15027FEB3BULL,0x02003222019A5E40ULL,0x01F68799025523A5ULL,0x015BA38301A80C80ULL,0x01149E070225B3FFULL,
  0x0238B40E025D1817ULL,0x01AF302B011510C6ULL,0x00D5260D0159B7C3ULL,0x0240B19501E7BC14ULL,0x0127040001D6FD57ULL,0x018866FB0196F293ULL,0x021709E001DF1C7CULL,0x013EBB8D01F5B8A5ULL,
  0x01B1A26402601B0AULL,0x01FD65B101B3C8A4ULL,0x020B88C601659A87ULL,0x0175F83701A2B76CULL,0x01FC5710034AFE97ULL,0x0182562402214AB6ULL,0x01397FF802715AFEULL,0x01D1691B025B5DF7ULL,
  0x016ED0C601A8F1B4ULL,0x019F7A310251F11BULL,0x013C00D301DC8BECULL,0x01436D7001B088B2ULL,0x01D08A5401F0BC4EULL,0x01CE9DDD0171EE2DULL,0x0229102F025B2053ULL,0x036222770154898BULL,
  0x01C673D1027CC00AULL,0x02D92F9F01EBB745ULL,0x01F25AFF029FE7A5ULL,0x014F80E801D1E485ULL,0x01CF90E702333B26ULL,0x01BD893602972A69ULL,0x019151F70159C562ULL,0x022A876301CC3808ULL,
  0x015D8E9C01A46BECULL,0x01F6428902685913ULL,0x0159808E01947739ULL,0x01821877017D2144ULL,0x01AC7E9801E205B0ULL,0x01AEDF01014E1F9AULL,0x01CDEA4301C32C83ULL,0x01353E970131DE6BULL,
};

static const uint64_t __blob_Sigmoid_224_activ_ROM0[] = {
  0x000000000000C480ULL,
};

static const uint64_t __blob_Sigmoid_224_activ_ROM1[] = {
  0x0000C00000000000ULL,0x01E8003CC0000000ULL,0xC8A608BA026DC3ABULL,0x0585C9270A7609D9ULL,0x53DAF685BFD617DCULL,0x9B8B4724F8158382ULL,0x0000F31A1C13FD65ULL,0x0000000037CB0155ULL,
  0x3F80000000003F80ULL,
};

static const uint64_t __blob_Conv2D_228_mul_scale_230[] = {
  0x3B812D2D396B27B0ULL,0x53A639B24A4C465BULL,0x3D13484C48D93463ULL,0x479830BE50EC2E53ULL,0x43EA4ABA47A0379CULL,0x30E630C13F1041E5ULL,0x2C61542D3F113B17ULL,0x2EE1390243EB4613ULL,
  0x371A44AB3D314721ULL,0x2CBD3D6C337A5F73ULL,0x40662F33381135E1ULL,0x52964AD33BE637CFULL,0x3E5932E039A93E16ULL,0x76B745B33CB9399AULL,0x35A050F93B014BB1ULL,0x35AB5B132B2D4231ULL,
  0x3BF82F785A163FD8ULL,0x591F3B9347832EADULL,0x3C6629A93D4C3424ULL,0x2F2939752A24339EULL,0x39C82F186E1F6B12ULL,0x3F11440740DC4A1DULL,0x2B907E3343465345ULL,0x390236C0446C4A0AULL,
  0x399134C32C823EA7ULL,0x41AE462D35F435A0ULL,0x3D8858883DBD3467ULL,0x2CB0440B35A749D8ULL,0x331B42B34DFE43D5ULL,0x470934352B8F4706ULL,0x54303BA231C83536ULL,0x3238467B2DF15E45ULL,
};

static const uint64_t __blob_Conv2D_228_off_bias_233[] = {
  0xFED90C26FF5E849DULL,0x005FAACCFF95AEFFULL,0xFEACF254006FDE73ULL,0xFD3E9F11FFC1C1FBULL,0xFF7DFED500678663ULL,0x00443BE3FE0F435BULL,0xFFF78109FEF74C2EULL,0xFFB714FB000BFEA0ULL,
  0x00D4B9ED004641EAULL,0xFFC8A119FEB0ED4DULL,0xFFF1C7E0009867CCULL,0xFF0807F4005E5407ULL,0xFF979B23FFDB3B2FULL,0xFFC777E50067DD1CULL,0xFFDD67EAFFA540A1ULL,0xFFA4FE9F003E1E26ULL,
  0xFFD089DDFE93A968ULL,0xFE79E43BFF6C3DC7ULL,0xFFAF2BCAFE912DD9ULL,0xFF5CE38DFFF24BD0ULL,0xFE5CC7E500C2F98FULL,0x00488BA1FF043CB5ULL,0x0018EB6EFFBE26E3ULL,0xFF5E9D3E0067BB59ULL,
  0xFFCF18F6FF292CEBULL,0xFFBF7B0EFF891F43ULL,0x00238D14FFF86E44ULL,0xFDE083E9FD739F81ULL,0xFF42A2D9002669D8ULL,0xFF53E325FFD35D1AULL,0xFDA3B51F00E572CFULL,0x00388D3EFE2BF8FAULL,
  0x0051A7FA00956616ULL,0xFF6AD12CFF3250D6ULL,0xFF94E9F2000B5E56ULL,0xFF3BBD27FEA67FE8ULL,0xFEB9A091005B7A44ULL,0xFF6EB671FFFD9B3BULL,0x0011CCA1000A2A02ULL,0x0023D635003581D8ULL,
  0xFFF51402FDBA6E93ULL,0x009BE60C003A3010ULL,0xFFD2C27C002FF57EULL,0xFFC27BC9FF7ED955ULL,0xFFF01512FF1EBA3FULL,0xFEEB0ADC011DED0FULL,0x000E0BD6FE0660F6ULL,0xFF6428E7FE78E42DULL,
  0xFFDA6E35FEC77BCBULL,0xFFEA348BFF9253D3ULL,0xFF9A94A1FF634F29ULL,0xFFB1F0B6FF708242ULL,0xFDCDC3220000BBAAULL,0xFF0860F7FFECC64AULL,0xFFD498BE0017BF39ULL,0xFFC15FF2FE186985ULL,
  0xFFCE95A50038D853ULL,0xFF96F4C9FF8BD7A6ULL,0xFF810083FFAFA39BULL,0x00600C5FFFD8AA28ULL,0xFF156018FFAE17A9ULL,0x001A6C9D000A8182ULL,0xFFCFE2DF00101C09ULL,0xFFBFA5E6005A5AB1ULL,
};

static const uint64_t __blob_Conv2D_235_mul_scale_239[] = {
  0x194F1008248D0AF7ULL,0x2763292426B11ABFULL,0x2D450F7C1E4B1D51ULL,0x09571766152E1E27ULL,0x16451E190B2B1579ULL,0x0FF226C33DC310F0ULL,0x2C0E17C11ADB1227ULL,0x1FDC0E8F257B1FDDULL,
  0x1FA0234E14EA1BD9ULL,0x13DF27EA20532ABEULL,0x0D331D7326161CFCULL,0x12901CED2C501E5CULL,0x1F5717A818E30A6DULL,0x14570E94183F283BULL,0x1B7311F121EA1070ULL,0x210E19D6147C1593ULL,
  0x24C61EC70D1B23E8ULL,0x09FC0D831D90181CULL,0x1B201CBC1ECE15EFULL,0x0D641F99169A234AULL,0x1BA719041EF21757ULL,0x1CAC1E5F155217CDULL,0x1E871CC81BA40FCFULL,0x164C19460BAA1E12ULL,
  0x1DA21EC51B4F19BDULL,0x121D29CF08400BE5ULL,0x0A7014391B221DCAULL,0x15B32AA612891C7DULL,0x29992AC71E211C4FULL,0x1313153819631626ULL,0x14A61FA11FEB1473ULL,0x0FF31D5218500BCDULL,
  0x197F126C18190C06ULL,0x1475290A14E72B4DULL,0x0E3D0E4515571D14ULL,0x169E1424210228ECULL,0x1A8911E34255092FULL,0x156F10491F0D1EFDULL,0x14A311671F362CECULL,0x1CD5170E20EA44EDULL,
  0x28271712120917A8ULL,0x220316F214C627A3ULL,0x22FB202B0F6E1E02ULL,0x1E6917DA22691F13ULL,0x242F1BF915F71C20ULL,0x1C2317D318E73688ULL,0x11AC0CA72A0A1EFEULL,0x23BB1BBB1FFA1549ULL,
  0x15AC0DF91A0E24D2ULL,0x2B6011DB1C8D1F9DULL,0x394E304716771304ULL,0x120A11D311FE20D5ULL,0x19AF3CCF1254161CULL,0x1CEE1B362CD11E2BULL,0x1954189E254B1CABULL,0x1D020D0B11D218B3ULL,
  0x0C460FAD1C2F1CB5ULL,0x1A151BFF1680248CULL,0x0E0D18520B732EA1ULL,0x110722B7199429EDULL,0x2609230A15BA2BBEULL,0x13250DC91D6E1778ULL,0x197B1476241B1CE4ULL,0x23FD0F721FCE0DFFULL,
};

static const uint64_t __blob_Conv2D_235_off_bias_242[] = {
  0xFCCEB8A602E4DB6BULL,0xFEFBF06B00EC5EB0ULL,0xF8AEA0F4FE34B801ULL,0xFF674C11F9FDF985ULL,0xFACAB079018C2858ULL,0x00331EFE001CA05EULL,0x018310F9FFE904CAULL,0x012191D4033962F4ULL,
  0x03C62C2FFDAFA1DFULL,0x0217B607015775E1ULL,0x00411D840303B1F5ULL,0x0426AC8D0515FB71ULL,0xFBD2E86101401834ULL,0xFD05701901D526A3ULL,0xFEBB97F000F5BF31ULL,0xFFB3E250030FEDD1ULL,
  0x03C57739FC4C95DFULL,0xFB99DD70005409BBULL,0xFF6C5C7500930522ULL,0x03C4D091FFC1E3BCULL,0x0026E4AFFE8F00EFULL,0x0199215D01A588F3ULL,0xFF41CF2A00FEF851ULL,0xFEE218C3FEBD2F99ULL,
  0x00248FC001FB47FCULL,0xFD89C58401BD947FULL,0x0391C50407603A71ULL,0x0159B11B00D8C524ULL,0xFD9F8A0900FE10F2ULL,0x01F87D67FFF48FF2ULL,0x0391C8EB02B53F17ULL,0xFBE8BDC2FE0FF0F9ULL,
  0x02974088FCFA9CBAULL,0xFE382F06010A7C2BULL,0xFBBC93A807D3CF52ULL,0x01A069C301D2048AULL,0xFDFE7771FFB6E2D9ULL,0xFDF102D9048A797EULL,0xFD4BD3FEFF2EADDBULL,0x0282625F00036BB9ULL,
  0x029F4901FEE51589ULL,0xFD1FF3FAFFE64FE0ULL,0x028EAC90026633E6ULL,0xFFC0771A0375329DULL,0xFE5D4374FF8D9010ULL,0xFFC937560294154CULL,0x0268526801858735ULL,0xFD427C8400B85AD5ULL,
  0xFD0376CF01696776ULL,0xFDF26F9CFD4352AEULL,0x02CF8B400186E02BULL,0x03720A8AFD6CF234ULL,0xFB2A1B77FF1DB24FULL,0x02D4BE9FFDD29538ULL,0xFF59FBC301A9096DULL,0x01246A2BFF1554AEULL,
  0x01C0C491027B0B8CULL,0xFE8BCCB50055E233ULL,0x03E54EBC028FEFEBULL,0x03B128F402B49904ULL,0xFEE01FCF00E07130ULL,0x0223142EFCB8343BULL,0xFC11FCF7FF37A61EULL,0x0150C6A80083675BULL,
  0x019D50DD0305F720ULL,0x00FA5ACCFFE1BA7BULL,0x02385B9EFF60F738ULL,0xFBAF02FA04B1ECE2ULL,0x0AD23EA5FEA85246ULL,0x046E2C67045078D2ULL,0xFA4D5C5AFE826A52ULL,0x029AAD3E01774580ULL,
  0xFED07D9801C30F28ULL,0xF9A02E4700225552ULL,0x00AF9090007B9A08ULL,0x00F5A00FFE29A513ULL,0xFC4D1C100063DA0DULL,0x05CF2226FDF1BC48ULL,0xF97328E6FF33F13CULL,0x076F6E4C0179D9C9ULL,
  0x02A9DBC000FAD509ULL,0xFB84173102CED780ULL,0xFF7547E406995072ULL,0xF940567F042FE4D3ULL,0x00E8FC150163F5B4ULL,0x025CEAB5010610D0ULL,0xFF85848CFD786D62ULL,0x03B49664FDFB947BULL,
  0x022E9574035B505AULL,0x006101D803EE47BEULL,0x04507467FBB38301ULL,0xFF40CB7C03D11D61ULL,0x016AC4D002D79D69ULL,0x021974F203C03D92ULL,0xFC4718FAFF32B03BULL,0x028137CCFA8A9AC5ULL,
  0xFABBB6CE01AC1142ULL,0xFE21605400F73264ULL,0xFC58F776FEFC1C94ULL,0xFAD0129802090B2AULL,0xFCC4E3B70011976FULL,0x04DE89C6FE4A5440ULL,0x05264634FD6B6DDDULL,0x04CDFA29026D6040ULL,
  0x02FDA48800402913ULL,0x05A9EEFB017E4297ULL,0xF91EC89EFDC5DBDAULL,0x01B79FE2FEDF4B79ULL,0xFF905CD704ACD7C3ULL,0x022E3D8000B1C401ULL,0xFDE720FD017C018AULL,0xFB89E47901E60871ULL,
  0xFE68FFB2F9585AA5ULL,0x0180357D0198914CULL,0xFC96EDD0057B0B0AULL,0xFF7FD04CF6E70076ULL,0x04EC8D88004789EEULL,0x04235C0EFF006CFDULL,0x0109B61FF8B095B3ULL,0x02B92174FF3CF84EULL,
  0xFE996EDEFF8D3A77ULL,0xFCE24E4DF998ACAEULL,0xFFE36263FF3715FAULL,0x015974F401195233ULL,0xFDBF26A0022B9C35ULL,0xFF3DE5FB019465EDULL,0xF8DA82CB01C1321DULL,0xFA790B5400CC3A4CULL,
};

static const uint64_t __blob_Sigmoid_238_activ_ROM0[] = {
  0x00000000000000C0ULL,
};

static const uint64_t __blob_Sigmoid_238_activ_ROM1[] = {
  0x0092C00000000000ULL,0x08620095CEB90BAAULL,0xCD4E148F0261C828ULL,0xFBCECD6817DF0546ULL,0x4CC0FCEAA3B166B9ULL,0x18CD1372FF63C58BULL,
};

static const uint64_t __blob_Quantize_244_1865_requantize_zero[] = {
  0x0000000000000000ULL,
};


static const uint64_t __blob_Conv2D_248_mul_scale_248[] = {
  0x26AF2EF945E63311ULL,0x17A41AD246DA4A9CULL,0x29E42A641FD621FAULL,0x17751ECD39BB4109ULL,0x61A746C027E41664ULL,0x2FDF3A851F3F23E8ULL,0x174720EB4CA31F81ULL,0x278D24CD1BFC350DULL,
  0x2A6B34EE217836ECULL,0x156E2951199A2414ULL,0x2BC427D221161C18ULL,0x13ED22FB2266315EULL,0x15BD201C22252D57ULL,0x23C31B971CA51F7FULL,0x294E24891C522341ULL,0x23E421D20FCB586BULL,
  0x32571F1D2C451A5AULL,0x436710EF21582320ULL,0x2CC92AB514F41A59ULL,0x250024051C4E17A5ULL,0x19552A852A0F26A9ULL,0x1F6646EF20922817ULL,0x12B91140215E2DB0ULL,0x20882701419C235FULL,
  0x1F23230C2BAD23FDULL,0x2C7F229114C12EBCULL,0x147A16393167203AULL,0x132F20931E4515C1ULL,0x10BF5EEC19DE1EBEULL,0x1228233F23C820B0ULL,0x20C3190330492AAFULL,0x180D26ED1A2420F8ULL,
};

static const uint64_t __blob_Conv2D_248_off_bias_251[] = {
  0x00897ED5FF854EB8ULL,0xFEF63054FF680C54ULL,0x005A3C69000355C9ULL,0x00F1FB3A002AD031ULL,0x00DEB6120005230CULL,0xFF01A433FED1AFE2ULL,0xFEE857C6FF343B8BULL,0x00D29AFBFFECA4E4ULL,
  0xFEF74B190081DF53ULL,0x00751BAEFF2DFCB6ULL,0xFFF8291C006C2BB7ULL,0xFE439025005ABD0CULL,0x001F937EFFC3D249ULL,0xFFFB961900B41623ULL,0x00422D89FEDB7C38ULL,0x0024C391FF902716ULL,
  0x008B1CF8FEEE0029ULL,0xFFA8A651FEF213BEULL,0x00C79223006B9DA0ULL,0x0090DBF7FF93C055ULL,0xFF437CB1FF5C2F30ULL,0xFF137518FE6DDAD5ULL,0xFF90BA85002FA489ULL,0x00CB09E4009F30CBULL,
  0xFFB055D5FFFD39D6ULL,0x004AB976FFE7639FULL,0xFF88B226006DBBBBULL,0xFF2C52AE00A911E3ULL,0x00980376FFEB3056ULL,0xFF42C0E1FFBF098DULL,0x01A58C3EFF392ADBULL,0x0068159FFFFBC1C8ULL,
  0xFF853E0BFFFF2C45ULL,0xFF8CE1ABFFD37095ULL,0xFFB8E370FEFB3089ULL,0xFEF945D401F5781EULL,0x0179377000410B7BULL,0xFE8CE56DFF683E8EULL,0xFFCE5F52012DCCAFULL,0xFF3D93B3FF3303FCULL,
  0xFFA0B654FF789079ULL,0x01A6CC00FF349E4AULL,0xFF69140BFF27F96AULL,0xFFB6FD7100676076ULL,0x016679E7FFDCAF0CULL,0x010A87BB00401CB8ULL,0x0064EA57FFA51708ULL,0xFF9531A2FFF38292ULL,
  0xFEA33768FF652F09ULL,0x00922AD2FEA4E065ULL,0x00744970FE9FDE34ULL,0xFF93CA8E0015B872ULL,0xFF65E45A005637BFULL,0x00E4E9E20044FF8CULL,0xFF678F9101B9567BULL,0x01E99203004C2D64ULL,
  0xFFF17795FF857437ULL,0x0192E23EFF2EE51EULL,0xFF237BF7FFA1123EULL,0x00FC397F0081181FULL,0x00397517FF10A7FFULL,0x0134815500B520AEULL,0x00A31AA7FF7FA7CDULL,0x0054BB7AFF518F06ULL,
};

static const uint64_t __blob_Sigmoid_251_activ_ROM0[] = {
  0x000000000000C480ULL,
};

static const uint64_t __blob_Sigmoid_251_activ_ROM1[] = {
  0x009CC00000000000ULL,0x12A60143CFFD0C92ULL,0xE929442F0800D1DCULL,0xF60BE98050000000ULL,0x594EF978E077760BULL,0x0FB42CABFD55EF7CULL,0x0000393502AB0000ULL,0x000000003F800000ULL,
  0x3F80000000003F80ULL,
};

static const uint64_t __blob_Conv2D_257_mul_scale_257[] = {
  0x31DC2CCF1CEB2307ULL,0x3DF32E8028EF1DF0ULL,0x3576397824D71F16ULL,0x206D1E9F22FE2524ULL,0x26512A2C1FC72A2BULL,0x34C53E1A35E72C86ULL,0x1EB31DA3228622F3ULL,0x332E25991E9B1C13ULL,
  0x2320227D3DD0211AULL,0x29DE575940E5376CULL,0x22412AA12EB5254EULL,0x2C6232DC32B51EA1ULL,0x3DD9243826991AD1ULL,0x1CE42C46268F2BB9ULL,0x23511A4D35B721D2ULL,0x31EF369A257C3286ULL,
};

static const uint64_t __blob_Conv2D_257_off_bias_260[] = {
  0x003AF5130205C04BULL,0x00FB07A400A4AFC6ULL,0x010148ED0068223EULL,0xFF93516800214A5CULL,0xFED2B2DF006C7500ULL,0xFFA056A9FF3223ADULL,0xFF96BCBEFFE8296EULL,0x01A9D9EDFFC9DE0FULL,
  0xFF4ECDA8FFEEF318ULL,0xFF90042CFF50F9D8ULL,0xFE85D183FF942A78ULL,0xFFD57A92FF8E48EFULL,0xFFC7904EFFFBCE8FULL,0x00147ADB017963C6ULL,0x009DF4EBFF42D7D4ULL,0xFF6BFB45FF1AA655ULL,
  0xFF5CC65E000BAC24ULL,0x00CDCB60FECBCC41ULL,0x00430D1DFFD6E113ULL,0xFEDBC250003C2B6BULL,0xFFAA7E7F00F183E1ULL,0xFF24F31EFF4D1B92ULL,0x00C4B814FF83158BULL,0xFFB9168C0055BF10ULL,
  0x0021356600EC6C94ULL,0x017E079C0064A0F5ULL,0xFE935435FF8AEE91ULL,0x000B93C8FFBF3947ULL,0x0046D2000024F995ULL,0x028DCE750147AD0DULL,0xFEC6A92603063603ULL,0xFFBB18F501A4DF79ULL,
};

static const uint64_t __blob_Sigmoid_260_activ_ROM0[] = {
  0x000000000000C480ULL,
};

static const uint64_t __blob_Sigmoid_260_activ_ROM1[] = {
  0x0011C00000000000ULL,0x1A5601AEC46A025DULL,0xF1E548C90790DAA8ULL,0xF777F1ED4BF8FF0DULL,0x4CADFA75EC806555ULL,0x1A1B20B0FE2CF93CULL,0x00002B470F5CFF45ULL,0x000000003F800000ULL,
  0x3F80000000003F80ULL,
};

static const uint64_t __blob_Conv2D_265_mul_scale_266[] = {
  0x139F184F19D3233DULL,0x2CFC123618401298ULL,0x16EE1848225B2314ULL,0x3861205F1B311C2CULL,0x1C6814660C781119ULL,0x20AB2B21196715F0ULL,0x21B1157C20B914FFULL,0x25261D58164D146DULL,
  0x22981FA2106B164AULL,0x1E410AE00DAB16A1ULL,0x1D741EB419985CABULL,0x1023231B138619CCULL,0x17D41453257B284DULL,0x23EA186F19001770ULL,0x1A8B1DBC1A021800ULL,0x25151F0920EC4631ULL,
};

static const uint64_t __blob_Conv2D_265_off_bias_269[] = {
  0xFF9D110F006C2D14ULL,0x00231D62FFCF352FULL,0x00FD11720108EA9FULL,0x001287840158E409ULL,0x004E5F88FFEC269BULL,0x007A40D6FFA47782ULL,0x003A9139FFA64F06ULL,0x001DE1AB011D5FCEULL,
  0x01358268005CE989ULL,0xFF82DF51009DB959ULL,0x000EEDEFFF8F3A04ULL,0xFFB1B41EFF38F463ULL,0xFF265F5C007E156CULL,0x002B31C5008E3638ULL,0x00431C04008E1116ULL,0xFFA75337FF8ACF75ULL,
  0x00AF7DD5FFEC9388ULL,0x0043F5BD00132962ULL,0x0101CDD100631484ULL,0xFFC17B7F017ACB14ULL,0xFF9529F40063A647ULL,0xFFD88131FFAED8A3ULL,0x009B5E06002767EDULL,0x00B38CD7FF49CBB8ULL,
  0x005B40EE00272726ULL,0xFF1110F5008F2F82ULL,0x006AD8EF012A2259ULL,0x0047116901674110ULL,0xFFC15852FFAB2279ULL,0xFFA0BD8800553C5FULL,0xFF6E0F8AFFD8BDC6ULL,0x012FE5D30008FEF6ULL,
};

static const uint64_t __blob_Sigmoid_268_activ_ROM0[] = {
  0x000000000000C8C0ULL,
};

static const uint64_t __blob_Sigmoid_268_activ_ROM1[] = {
  0x0000C00000000000ULL,0x00000000C0000000ULL,0xF7B23054029DC000ULL,0x0222CBB70A97009CULL,0x378B057CD7D31BBCULL,0xEE0952660B85E628ULL,0xF47BED3F57DBFE23ULL,0x4DD1FA2FE5187AB8ULL,
  0x25971666FEC8FB91ULL,0x0000273013C8FF01ULL,0x000000003F800000ULL,0x3F80000000003F80ULL,
};

static const uint64_t __blob_Conv2D_274_mul_scale_275[] = {
  0x200519E01BFC284AULL,0x0D912DBE257115ACULL,0x20881DF317B21E3AULL,0x1D0C19E71F5D18FDULL,0x19801FDD12611618ULL,0x279429C517192443ULL,0x32CD1F8E2C342507ULL,0x150029E6206C3878ULL,
  0x1D3426281E2814C6ULL,0x1986153B195620C7ULL,0x0EE51C2318592193ULL,0x0D491C5917CD10F5ULL,0x1DCD2FD0435B1C96ULL,0x0EDC1B1520171F01ULL,0x0F6D1B6F201E1F8FULL,0x24D419542B040FEDULL,
  0x0F821436195F1CF9ULL,0x1717157017020F91ULL,0x23802ABE17A31AC9ULL,0x13481BE712CD103AULL,0x1E8D206B19581FFAULL,0x271C236C20931F8CULL,0x138D23631FD91AD5ULL,0x223116321A1D11B5ULL,
  0x0EE420AD2ED32054ULL,0x1C4519E2229F237AULL,0x1FC80C921EF41CA7ULL,0x0D94316B2A6022DCULL,0x1C3316B2171124A7ULL,0x1BA1188B14041A04ULL,0x2E6930DE0F5C17D5ULL,0x1912201A3A1619C7ULL,
};

static const uint64_t __blob_Conv2D_274_off_bias_278[] = {
  0x00B5265AFFE3A70FULL,0x009CFE850048CAEFULL,0x0068190A01A63E1DULL,0x01E5261100272395ULL,0x012FD5C901C3B1BEULL,0x00CE161E002984E3ULL,0x01118401015D2678ULL,0x005A779600D22EB0ULL,
  0x01EDFFB50143064CULL,0x01AEDAEF00A050B9ULL,0x0052199100206658ULL,0x0112F6FB01EE41E9ULL,0x00260EE80160B1C0ULL,0x0052545800709571ULL,0x01577A18005BFF3EULL,0x007BC47B016BFA2EULL,
  0xFFD77EC701427EC4ULL,0x006AF90300A6AF97ULL,0x010C0E4401CDCB85ULL,0x000DF2C500A4D9ADULL,0x014F73EE0161A68BULL,0x01B256C00024EBC1ULL,0x00F3F59F016B8F77ULL,0x0163C1CC01A58575ULL,
  0x00D72D1C00B5E130ULL,0x01541658FF27A38BULL,0x016FED3900606FDAULL,0x0215DDC9006C7395ULL,0x01138B7B003D2189ULL,0x0217E83700F061B7ULL,0xFF2E6837015AF156ULL,0x00B939A400A99F40ULL,
  0x00B4A48CFFB97634ULL,0x0114D125016EEFAFULL,0x010ADEF90106CF50ULL,0x00D968A101917976ULL,0x010BD6EB01865CA1ULL,0x00A85744FFAF8F41ULL,0x01AD6A6C018355E3ULL,0x011B275200F430E7ULL,
  0x0134A86A00C38214ULL,0x00B50A4500CA417BULL,0xFFE7F13300B1E99AULL,0x00A67A0000C17CBFULL,0x0025B12C00E9DE9AULL,0x01F8AD020042D77BULL,0x0086E22A00ADF68DULL,0x00D1D7ED00F9AE73ULL,
  0x0078488000747FCDULL,0x0137FE1601393B84ULL,0x00E8791601700B28ULL,0x00C9AC3A00F702C5ULL,0x01569769019BB2B3ULL,0x0128ABC501C4056AULL,0xFFF129EC0022744AULL,0x01DDB2DD009E2F5FULL,
  0x00746187007D78BDULL,0x00614A0400FF7354ULL,0x00A58DE900A34296ULL,0x00FD8245012972E5ULL,0x014766F4015E4564ULL,0x00D23E0AFF5F25D7ULL,0x0124770800B8BB2AULL,0x00C0051500E78161ULL,
};

static const uint64_t __blob_Sigmoid_277_activ_ROM0[] = {
  0x000000000D89C100ULL,
};

static const uint64_t __blob_Sigmoid_277_activ_ROM1[] = {
  0x0000E29B01C30024ULL,0xBB55F555E0400000ULL,0xE300019A0000A950ULL,0x0000E46B02AB0000ULL,0x24AB0AABE72B0555ULL,0xEEBE1A000800F2D0ULL,0x05DEEEFE1A000800ULL,0x3200FAABEF221C11ULL,
  0xE5D63B00F800E999ULL,0xFF8EF336283AFB4AULL,0x00000000160F05EEULL,
};

static const uint64_t __blob_Quantize_283_1913_requantize_zero[] = {
  0x0000000000000000ULL,
};


static const uint64_t __blob_Conv2D_287_mul_scale_284[] = {
  0x09F10F4108E208EAULL,0x135F09EC0B794366ULL,0x0E010BBE0FEC0AC2ULL,0x0BB00CF3110914D5ULL,0x0A40097716D40E25ULL,0x0A3C069F0A010B3EULL,0x146208E908CD157BULL,0x09B408D20C2B09DBULL,
  0x11B20F4407791226ULL,0x13100E6E15F90DEAULL,0x14F60C1919CE0CAFULL,0x0A9C0C0E0C900D88ULL,0x14611FB90EB10C35ULL,0x0736148207C50DFAULL,0x10FB093213310B25ULL,0x118606130784120DULL,
};

static const uint64_t __blob_Conv2D_287_off_bias_287[] = {
  0x00EB5C0C011D325AULL,0x00822DE600398B31ULL,0x00A1A004FDB04A89ULL,0xFFAC5225006A4E09ULL,0xFE9CC8FA00A9508CULL,0x0043ADA3000452AEULL,0xFFE6B05CFF18DB8EULL,0xFF7263D3FEFF8DE6ULL,
  0xFE617C22FF554BE5ULL,0x007BD54C00B1A883ULL,0x00B33F3400910E6BULL,0x002E750900464F2CULL,0x008A2379FEFB2152ULL,0xFF2722D201556A09ULL,0xFFB80BD300B4591EULL,0x0056E5AD0036F8C9ULL,
  0x01365D49FE9F8024ULL,0x0004D438FF6AF99EULL,0xFFAC4494FF5B18CDULL,0xFF8D50A7FFB27B18ULL,0xFF67E4AE00385686ULL,0xFF24DEE401110E9CULL,0x0077E0A400242731ULL,0x0007C27B009FDA37ULL,
  0x0140752D0045F2FDULL,0xFE5E070CFEC3A96AULL,0x00F086D3001492B9ULL,0x01297B1C001D4368ULL,0xFFAD69FE00D7E25EULL,0xFE92102F016B321DULL,0x00DA6C48FF1FB002ULL,0xFF37756801286CBEULL,
};

static const uint64_t __blob_Sigmoid_290_activ_ROM0[] = {
  0x000000000000C480ULL,
};

static const uint64_t __blob_Sigmoid_290_activ_ROM1[] = {
  0x0042C00000000000ULL,0x2B7A02BFC9E3065CULL,0x02D5517206BDECD8ULL,0xF8E4024C4B39FB03ULL,0x3911FBBC022B4F1CULL,0x21151C0DFE560CD1ULL,0x00003AC802000000ULL,0x000000003F800000ULL,
  0x3F80000000003F80ULL,
};

static const uint64_t __blob_Conv2D_296_mul_scale_293[] = {
  0x3DF030532CB823B0ULL,0x380F2B8631AC32B6ULL,0x37CC23B82B3D34C1ULL,0x3A2B1E9E264F4549ULL,0x264138F73176361FULL,0x3C7531AE24D039F1ULL,0x2E5837154E5C2501ULL,0x2C4F36922CE939EDULL,
};

static const uint64_t __blob_Conv2D_296_off_bias_296[] = {
  0x02DDDEE8021B7486ULL,0x0066747E00DFFC3EULL,0x004148EEFE29B7F3ULL,0x03DCAA4EFFD2ABF1ULL,0xFF64973DFF14BEA3ULL,0x02C20C7601415450ULL,0xFF98539C010245DAULL,0x02F2A5F902E9B874ULL,
  0x03555F93FEB753C6ULL,0x012CE6FCFFD1161FULL,0xFFACE39B005C0A8EULL,0xFF7B2B43FFDCA091ULL,0x0289E4C8012923C6ULL,0x03B72F0E0068EE15ULL,0x016E85E2FF0B4609ULL,0x02C18ADB00AC3DE5ULL,
};

static const uint64_t __blob_Sigmoid_299_activ_ROM0[] = {
  0x00000000000000C0ULL,
};

static const uint64_t __blob_Sigmoid_299_activ_ROM1[] = {
  0x0074878802000000ULL,0x49540213A54B16DAULL,0xEC236E390410D6C2ULL,0xFCB5EB357462FDB7ULL,0x25D1FF46F0717666ULL,0x54A71687FFA140A7ULL,
};

static const uint64_t __blob_Conv2D_304_mul_scale_302[] = {
  0x2D6D31D01F175156ULL,0x241E3DFB3C833D4FULL,0x3958216B527C2C6AULL,0x35D02C6236914394ULL,0x446D2D312CA342CFULL,0x38A24C1C3B6E3708ULL,0x25CA34C425863763ULL,0x26AC378E4AB43085ULL,
};

static const uint64_t __blob_Conv2D_304_off_bias_305[] = {
  0x01746D230053FDB1ULL,0x003C4E1D00764824ULL,0xFFCDBD4A0062091DULL,0x02911A19FFA6BCDFULL,0x003528B300C53B75ULL,0x005AB121001F9267ULL,0x003DDEB80019A6A7ULL,0x003EE471004C4319ULL,
  0x00631A8BFFFDBE44ULL,0x001581EB00085B40ULL,0x015E4702007CF6DAULL,0x00B9B3700113F55AULL,0x00C1B78C008C892AULL,0x020247A701AD75E0ULL,0xFFB86B16010A76D8ULL,0x0395D9B1012F48A7ULL,
};

static const uint64_t __blob_Sigmoid_307_activ_ROM0[] = {
  0x000000000000C480ULL,
};

static const uint64_t __blob_Sigmoid_307_activ_ROM1[] = {
  0x003CC00000000000ULL,0x14E40155C86905ACULL,0xECCA443C0773D534ULL,0xF70AED3B4A6600A4ULL,0x4EDBFA84E5416C7BULL,0x119F292FFDA1F525ULL,0x0000309D0A49FF91ULL,0x000000003F800000ULL,
  0x3F80000000003F80ULL,
};

static const uint64_t __blob_Conv2D_313_mul_scale_311[] = {
  0x60F821BE2407206AULL,0x3A931C142B801F98ULL,0x217117AD257316C3ULL,0x30DD13472A172B97ULL,0x23641532276A1AB3ULL,0x29E12D781A422780ULL,0x24691ED52B5A133FULL,0x131A38831DB115D1ULL,
  0x26B51F1F17A839C3ULL,0x2D9B17883FBD2C60ULL,0x1CD61CDC1C46353FULL,0x1A0A14E23374125EULL,0x1627146B29DA2CC3ULL,0x177312472AA63698ULL,0x1A5E1D2112472A7BULL,0x2AFE198C498D2423ULL,
};

static const uint64_t __blob_Conv2D_313_off_bias_314[] = {
  0xFF0FE4BF0097AFF4ULL,0x02131CC400FC9AF6ULL,0x018AD200019624A9ULL,0xFF942B7AFF58F9A0ULL,0x008E2EBBFF2C741CULL,0xFF386A5200B1E50AULL,0x01574EB6FCD48C4BULL,0xFECD199A00DFF8BEULL,
  0xFF0CCDC00047C38EULL,0x00CA3C5E01C0B36FULL,0x003B626200C3CF76ULL,0x006E13D5FDD7EA90ULL,0x001915E90187C5ABULL,0xFF865F0D0045AE48ULL,0xFF09228CFFFAFD99ULL,0x01B88BD4FFEFA11FULL,
  0x00E7CF07FF991276ULL,0x00B5016500E65261ULL,0xFF5DCDD2006B5972ULL,0x00C6D79B00AF0045ULL,0x02C996080020FD78ULL,0xFFF7B21900985324ULL,0xFECCCA3E0128D4C9ULL,0x0169CB68005CC6A1ULL,
  0x01DD6ADFFF85EDB0ULL,0x004847FF0105D13EULL,0xFF2EB28B013875C2ULL,0x001545B000A9C56BULL,0x00EB117E00802507ULL,0x00C8341C0004E3A4ULL,0xFF65648701E335E5ULL,0x012058D00049F2BDULL,
};

static const uint64_t __blob_Sigmoid_316_activ_ROM0[] = {
  0x000000000000C480ULL,
};

static const uint64_t __blob_Sigmoid_316_activ_ROM1[] = {
  0x002FC00000000000ULL,0x1CB701DFC74004B6ULL,0xF89A55110911DC56ULL,0xF6DBF84E5500FC00ULL,0x36CAFC1FF65862ABULL,0x28B213BCFEEF0D51ULL,0x0000FF5E3800FCF4ULL,0x000000003F800000ULL,
  0x3F80000000003F80ULL,
};

static const uint64_t __blob_Conv2D_344_mul_scale_347[] = {
  0x1C8132C71B4E2414ULL,0x173621590F5F1EF1ULL,0x40970FBA20B21D68ULL,0x291317D134D10F52ULL,0x1EB817E93DC4224BULL,0x235C1C6528B21B82ULL,0x10B42F592B03152BULL,0x1A5F1B3F2EAE1FA9ULL,
  0x2ECB185D14CA1552ULL,0x30FA2B9E32EB14A3ULL,0x1C73180A158C1FBCULL,0x1B8F1DF716541DF2ULL,0x34EE229621212950ULL,0x156A22391ACE1105ULL,0x2B7A0FA5342D2796ULL,0x2AEE2BD92047163DULL,
};

static const uint64_t __blob_Conv2D_367_mul_scale_374[] = {
  0x2A9D401F50992C2BULL,0x50BB3EDE1B2377FCULL,0x219065C8432D2E1EULL,0x3BF43160440F5191ULL,0x488134831E86486AULL,0x268D3F1927F54DA4ULL,0x51A33B1733DB4C63ULL,0x371C4E4A33A53D48ULL,
  0x52B1271033211BB3ULL,0x45613637331A2748ULL,0x33346A303C593BB5ULL,0x332A39B34A1731B6ULL,0x6E4A48CC1AF82BB7ULL,0x48841D242F726034ULL,0x303954304103281DULL,0x4CB343B647C03C0BULL,
};

static const uint64_t __blob_Conv2D_367_off_bias_377[] = {
  0xFFE07D68FF029F76ULL,0xFFBEBDECFF18C6F6ULL,0x00FAE141FF52DFD1ULL,0xFE73D1A0FFADF5EAULL,0xFF021B79FFEF67C2ULL,0xFEA34248FF479506ULL,0xFFC1396BFF682FD2ULL,0xFFA674A8FEF7ED3CULL,
  0x004ED2F5FF1B2774ULL,0xFFA35538003A5BF1ULL,0xFF606727FFEAADFFULL,0xFF2D459AFF8F0F39ULL,0xFED804F4FDF5CFAAULL,0xFFA61989FFF7FC4BULL,0xFE9DE3A1FE1CBB50ULL,0xFE224813FF5B832CULL,
  0xFF884CB3FEF7BD22ULL,0xFF54702E00B27D28ULL,0xFF704181FF7BAE85ULL,0x00604BE8FE764EA1ULL,0x00917189FE5A0E3FULL,0xFF07B70000126D48ULL,0xFE448240FEDD2016ULL,0xFE63C382FE0AD6AEULL,
  0xFEC30808FFFFCABAULL,0xFE73D61AFEBF5B75ULL,0xFEF7187FFE9188A5ULL,0xFDF1B7EBFE6E05F2ULL,0xFE4AB23FFF5B855EULL,0xFFC1E90BFF19E485ULL,0xFE9567E702A972EEULL,0xFE944929FEEAC538ULL,
};

static const uint64_t __blob_Conv2D_321_mul_scale_320[] = {
  0x382926131D1C4DDAULL,0x13F642B91EE32576ULL,0x198D1D3F1A421EEAULL,0x1D070C5523C92510ULL,0x5EB0156C3DF8192CULL,0x18A12692200B3C77ULL,0x0FA82F9812CA1C8CULL,0x1ECA11FF09C61C88ULL,
  0x16D80BC332011E7CULL,0x2491170E1E9719B9ULL,0x287330A22C6E2E18ULL,0x1FD6143C34C72B33ULL,0x26511E951F7E09DDULL,0x1EA513980D041D74ULL,0x1928251C115A2299ULL,0x4BC0230B33A53FFFULL,
};

static const uint64_t __blob_Conv2D_321_off_bias_323[] = {
  0x016BF9A4024FD24AULL,0x023170E6015431B0ULL,0x0224E06F01ABC05BULL,0x01205740018F332BULL,0x00F0C96901AF1561ULL,0x024F4BCB002AA938ULL,0x016A3CA2014D9644ULL,0x021B6A7503182600ULL,
  0x0261721F02E538C2ULL,0x0163F688032A2981ULL,0x00B5847F016CC429ULL,0x03863B70016B2D5CULL,0x01CE29BE01C375B8ULL,0x026B43AD0262FDE1ULL,0x023DD02B03278558ULL,0x01E529BA02308CEEULL,
  0x0138452E0299A5F7ULL,0x022558DF03133444ULL,0x021C0139015AC0EEULL,0x023146160206F330ULL,0x010C0CB600B54743ULL,0x020E275500B98118ULL,0x0176402D0029A77CULL,0x019821A702164262ULL,
  0x01BE2182024B20AFULL,0x017DB4C40104369DULL,0x02CFECCA017E370BULL,0x01994EBA01E5B668ULL,0x026D9F6F01B199ADULL,0x015D6DFB0202CBE5ULL,0x019ADD2A008BF079ULL,0x0221125E014BD238ULL,
};

static const uint64_t __blob_Sigmoid_324_activ_ROM0[] = {
  0x000000000000C480ULL,
};

static const uint64_t __blob_Sigmoid_324_activ_ROM1[] = {
  0x0000E00000000000ULL,0x042A00A7E0000000ULL,0xE3CE08490277E336ULL,0x07F5E40709D40AF9ULL,0x6192F3E6E01914C0ULL,0xCFAD4911F777BB05ULL,0xFCF4F7FD1F1FFCEEULL,0x00000000F0292218ULL,
  0x1FC0000000001FC0ULL,
};

static const uint64_t __blob_Conv2D_344_off_bias_350[] = {
  0x002D9E0A003431BEULL,0xFF479B24FF80F342ULL,0x01165B65010FFDDCULL,0x008350F4011092BDULL,0x0110D20100AAEF6DULL,0xFFD0E7A000449441ULL,0x00E5F47301337EDBULL,0xFF05875602C8C5EBULL,
  0xFF121BCFFFC767C4ULL,0x015250B800FD7E3EULL,0xFF39040E0072747AULL,0x00756A7000C97412ULL,0x01E0CCDF00DBC13DULL,0x015116EC0026C55CULL,0x0026F63C00B4E05BULL,0x00B0972F00F6013EULL,
  0x00B2CA6F00EF3857ULL,0x00354EADFF302333ULL,0xFF2AAD9A00FBDDADULL,0x0051782C00DE2DADULL,0x006D4E89013ADDF7ULL,0x01685BDE01BE2E02ULL,0x000E5B610047441CULL,0xFF38C52F00E0A7F5ULL,
  0x005DE22F0026FF2DULL,0x00A8C81A02643F0DULL,0xFF1FD58502004641ULL,0x00A55B4CFF34A966ULL,0xFFF51D71FFA829CCULL,0x0184DA5C00F37F20ULL,0x00D0FE720118E9C7ULL,0xFFA0B1A90154B64EULL,
};

static const uint64_t __blob_Sigmoid_347_activ_ROM0[] = {
  0x00000000000000C0ULL,
};

static const uint64_t __blob_Sigmoid_347_activ_ROM1[] = {
  0x00C2C00000000000ULL,0x1CFD01F0D4AA0FE8ULL,0xFAC25B1F09E9DBD5ULL,0xFD7DFA02615DF6F1ULL,0x000000001AA92646ULL,0x3F80000000003F80ULL,
};

static const uint64_t __blob_Sigmoid_370_activ_ROM0[] = {
  0x00000000000088C0ULL,
};

static const uint64_t __blob_Sigmoid_370_activ_ROM1[] = {
  0x0200C00000000000ULL,0x3325024915F13480ULL,0xDA4A123300CD07D5ULL,0x057CF6BC2F5502ABULL,0x6800082510DF519AULL,0x13EE46DB00001CC6ULL,0xFE4913C9406AF915ULL,0x0A00FF8026271A00ULL,
  0x3F80000000003338ULL,
};


static const uint64_t __blob_Conv2D_375_mul_scale_383[] = {
  0x14281DC117222C4DULL,0x20D31E8E22D419FBULL,0x38C228BF1A92236AULL,0x2AAF1A5F1CF01E2FULL,0x1B7429BB21DD1D0CULL,0x3B89135C21131B95ULL,0x1B7225CA26E917FFULL,0x19BC1F4A16CE1B91ULL,
  0x1BA014CD1B892094ULL,0x339A1F222037295BULL,0x1CB81C25194D1622ULL,0x1DA8278A1E271AA1ULL,0x7F4D23281DAA2170ULL,0x2B95308833E43349ULL,0x230C2B3F1E2B2566ULL,0x1D8412F4215A1FFFULL,
  0x23122B01323A2056ULL,0x224237CC177110B3ULL,0x253230682E352995ULL,0x1AA1206B1D8C173DULL,0x2E1029A5223C2CF0ULL,0x26D3245E1F3818E7ULL,0x29272C1329C3397BULL,0x1FA01D6333C31E9BULL,
  0x162D22672D663148ULL,0x15ED1E3227D620A9ULL,0x0BC72889258B2DEEULL,0x2ED81F1D219022D2ULL,0x1247205528063ECCULL,0x2629226E18952B6BULL,0x56CB292822F82A02ULL,0x1CAB27DF25322F5FULL,
};

static const uint64_t __blob_Conv2D_329_mul_scale_329[] = {
  0x17A910961C5B1143ULL,0x124018F20C4E12D2ULL,0x157E1979112E133BULL,0x18E518C7129C1907ULL,0x1F081F5B177B1883ULL,0x0C1C23EE1EF40BBFULL,0x19AA242F38AE14F9ULL,0x15B90B48375F1356ULL,
  0x138F187C32322775ULL,0x18EA1A9426AA215DULL,0x11BD15BD16B61F8FULL,0x09FF1E0A3EE81B82ULL,0x1257250E0C551797ULL,0x195608050A5F0A9BULL,0x1512333115A60ED2ULL,0x159B0DC8451D0E1FULL,
};

static const uint64_t __blob_Conv2D_329_off_bias_332[] = {
  0x015C4064013939F2ULL,0x014089C2017E65B0ULL,0x01B7867801B9DB7FULL,0x013F1C28019C0B81ULL,0x01417CA101DC13E7ULL,0x017E2E36010943CEULL,0x0166AC38015E34BEULL,0x014817C90151795FULL,
  0x01CCD67301A81FEAULL,0x015973F8019150D9ULL,0x01B31A9D017F4765ULL,0x018755F80125D310ULL,0x017589100131E447ULL,0x017108F1011BB653ULL,0x012D8F59013B8164ULL,0x01BB8A6A016A5B7FULL,
  0x019882CC016C5906ULL,0x0144E1410119AB69ULL,0x01626E1300F49939ULL,0x013E7FF0012E1FF1ULL,0x0131838D01423798ULL,0x0161F059012AC6EFULL,0x018F863901A048D7ULL,0x0158917801B4762DULL,
  0x012C022F016EECAEULL,0x0149B74601713030ULL,0x0190B95E01433307ULL,0x018177000117D1C6ULL,0x0174D8CA014ADEA3ULL,0x017622D401A55CEFULL,0x016C304D0169E1C8ULL,0x01859506017783D3ULL,
};

static const uint64_t __blob_Sigmoid_332_activ_ROM0[] = {
  0x000000000000C8C0ULL,
};

static const uint64_t __blob_Sigmoid_332_activ_ROM1[] = {
  0x0000C00000000000ULL,0x00000000C0000000ULL,0xC00000000000C000ULL,0x0000C00000000000ULL,0x00800000C0000000ULL,0xCB980A250A79C208ULL,0xE5D1CBB50CA81BB5ULL,0x2008F52B966641BAULL,
  0x28480627FE62DF7DULL,0x00003F8000000000ULL,0x000000003F800000ULL,0x3F80000000003F80ULL,
};

static const uint64_t __blob_Conv2D_352_mul_scale_356[] = {
  0x4B1D268A12E41594ULL,0x168E1C6B26831821ULL,0x11CA12D30C221989ULL,0x24D1139708B912E5ULL,0x1BF01CE0137B1244ULL,0x15070A6210E80BB5ULL,0x0CFE0CA15F14113BULL,0x18C610B71A8F0DFDULL,
  0x200F1CAE187D097AULL,0x711C18D41263088BULL,0x27332E9A08AF0E2DULL,0x20F814010ED91688ULL,0x0F25168013831339ULL,0x0D732EB812C416DFULL,0x081D1668184F1076ULL,0x230E0FB90EB72661ULL,
};

static const uint64_t __blob_Conv2D_352_off_bias_359[] = {
  0xFFB62C67FF969D1DULL,0xFFAFFC8CFF220499ULL,0xFFB7725AFF9F4A7EULL,0xFF69658AFF8F20B0ULL,0xFF876451FF50A131ULL,0xFF70C76FFFAF7F0AULL,0xFF6E4392FFA129A3ULL,0xFF61BE19FFB67EF9ULL,
  0xFF947832FFBB7A55ULL,0xFF9B6224FF461BA7ULL,0xFF881AF8FF84082CULL,0xFF7F476EFF2F783EULL,0xFEFAD7ECFF889D9BULL,0xFFAB3B61FF88DD6BULL,0xFFA62957FF7B7383ULL,0xFF883DA0FFC3CA86ULL,
  0xFFC2B681FFA00C12ULL,0xFFBB953AFF734EA7ULL,0xFF814E02FF72858AULL,0xFEC8BA40FF53E1E1ULL,0xFF9CB818FF562EC2ULL,0xFF6F07E9FF5BCFC4ULL,0xFF953B3DFF8325BBULL,0xFF85E9D2FF788BACULL,
  0xFFB1A63AFF82EC3DULL,0xFF87D7CAFF8B92C7ULL,0xFFC25063FFCC0C5BULL,0xFF693671FFBB90E1ULL,0xFF9314E5FF80A074ULL,0xFF6D9B27FF9B36AEULL,0xFF7AD495FF4EEDE0ULL,0xFFF34B6BFFAA4EA3ULL,
};

static const uint64_t __blob_Sigmoid_355_activ_ROM0[] = {
  0x000000000D89C100ULL,
};

static const uint64_t __blob_Sigmoid_355_activ_ROM1[] = {
  0x0000C00000000000ULL,0x1A800800C0000000ULL,0x16A01E550AAB17A4ULL,0x0FA5F0F91272071CULL,0x46CD26661546240BULL,0x3970330010004A9AULL,0xEC0D2AE01900E000ULL,0x0407FDD82AD11339ULL,
  0x3F8000000000382DULL,0x00003F8000000000ULL,0x000000003F800000ULL,
};

static const uint64_t __blob_Conv2D_375_off_bias_386[] = {
  0xFE8A6266FE6A5B8BULL,0xFDE7BF4FFE32AD98ULL,0xFDF98E6CFE5875F3ULL,0xFE783570FD2E9FC5ULL,0xFE9854E9FE5DA25BULL,0xFE23C554FE508F9DULL,0xFE56AEB7FE6A5CF6ULL,0xFE0980FEFDC950F3ULL,
  0xFE334169FEA5FB28ULL,0xFDCAC05DFE3E3A8FULL,0xFDEBF661FE037336ULL,0xFEEEE27CFE3A19F7ULL,0xFEB4AB41FDFE119DULL,0xFE499B58FE4F5D32ULL,0xFDE83F61FE332381ULL,0xFE380260FDD4F6E0ULL,
  0xFD6CFB11FDF7EECEULL,0xFDACB1EDFE284F3DULL,0xFE15AAC4FEB3F0BEULL,0xFE3D9D44FDCB613FULL,0xFE55E2D0FED1625BULL,0xFE5ABB73FE73C1FDULL,0xFE0D364FFE6972F5ULL,0xFE932E4EFDB1C8F8ULL,
  0xFDF356A4FE55B126ULL,0xFE42DCF7FDDEBC0FULL,0xFE1ABA44FDD27E0DULL,0xFE07F141FDE21E64ULL,0xFE59F44AFE6AAB35ULL,0xFE9D8FCAFE4AA9FCULL,0xFE1B3592FEE07D0DULL,0xFDE3AB11FE11A64FULL,
  0xFE1B291FFE2EDD50ULL,0xFE161AC3FD6BB16AULL,0xFEB4B740FF3E965AULL,0xFDD7F565FE1B4A49ULL,0xFE5E5AFBFE228691ULL,0xFED5563CFE0056B1ULL,0xFEC4907DFE8277AEULL,0xFE8EC2C8FE6CF539ULL,
  0xFEC27BD7FE11F8E3ULL,0xFEEF9C49FE884566ULL,0xFE66B368FEB0EA97ULL,0xFDDBBABAFE7BAE18ULL,0xFE3B814AFE695108ULL,0xFE90223CFE50D1F6ULL,0xFE8CC7E1FEB6DBE1ULL,0xFDF32126FE70D8A5ULL,
  0xFE91DDFBFEA30824ULL,0xFDEFB98FFE5070EBULL,0xFEF61E22FE6132BEULL,0xFEA635ABFE056610ULL,0xFE736282FE192DCFULL,0xFFA3EDACFEC43695ULL,0xFE3536FAFE39C5CEULL,0xFDC33B6CFE7F58BCULL,
  0xFE24533FFD5C272EULL,0xFEF6CDD1FE95612DULL,0xFE1E22F7FEA6582DULL,0xFDD0A213FD7362D4ULL,0xFE3328A5FE5B89A6ULL,0xFDBDA880FE60A188ULL,0xFDE196D2FECF04EEULL,0xFE6A0805FE83BD43ULL,
};

static const uint64_t __blob_Sigmoid_378_activ_ROM0[] = {
  0x00000000000088C0ULL,
};

static const uint64_t __blob_Sigmoid_378_activ_ROM1[] = {
  0x0000E00000000000ULL,0x16400200E0000000ULL,0xEC77094A00DFFED8ULL,0x11741331305D05D1ULL,0x2881FB864B00785DULL,0x1C870821EFBF2700ULL,0x00001CEE0770FD92ULL,0x000000001FC00000ULL,
  0x1FC0000000001FC0ULL,
};

static const uint64_t __blob_Conv2D_359_mul_scale_365[] = {
  0x3EF1578952D5403FULL,0x0000000049904B21ULL,
};

static const uint64_t __blob_Conv2D_359_off_bias_368[] = {
  0x045F16BF04331685ULL,0x040DE1AF0429AE2AULL,0x042921AB0436BEA6ULL,
};

static const uint64_t __blob_Conv2D_384_mul_scale_392[] = {
  0x1CCD2AC11C8C126BULL,0x2D5232E92DB23F0BULL,0x19A32CCB230913B2ULL,0x182123601B02193FULL,0x21241ACD2CB521CEULL,0x224D1C97119004B5ULL,0x324016AA2336271FULL,0x0F5427262DB72762ULL,
  0x11A922991B3A3D0CULL,0x2005181B337733F4ULL,0x246238B231073436ULL,0x35D8235E23CD1D9EULL,0x33493A0642C02FC0ULL,0x1F40374218D13667ULL,0x33CA3B7E303E2C56ULL,0x1F422769205B3B25ULL,
};

static const uint64_t __blob_Conv2D_384_off_bias_395[] = {
  0xFFCAEF050079733CULL,0x0009367400DFD22BULL,0xFFE30423FFD68CA2ULL,0xFFBCD748007380DFULL,0xFFEFEE3B00BDB005ULL,0x013B92C8FFBE6A2CULL,0x002A9CE80013ABFFULL,0xFFDA2918003AB896ULL,
  0xFFE0D4440025CF46ULL,0x013281C500A5AEEEULL,0x00AFD96E01BD75A0ULL,0x01119B33FFF35C2AULL,0xFF23CCA5007C6FE5ULL,0xFF3396A30005F88CULL,0xFF688DBBFF928F59ULL,0xFFF0EE7200D82F61ULL,
  0xFFE59312FFC053A8ULL,0x00E74B20000F9591ULL,0xFF4FEF05FF9F043AULL,0xFF483D2200BC3726ULL,0xFFC6A412FFBD6AFFULL,0xFFC850B6008DD17BULL,0xFF245F0CFFA2DEFAULL,0xFFBA8DBB013C660FULL,
  0xFFE7275FFFF23121ULL,0xFFCED3AB0018D55AULL,0x00E33A3CFFCF9EDCULL,0x014DA13FFF1A837FULL,0x0091DDB2FFC4EB30ULL,0x00268585FF316EE4ULL,0x00AB77DF007B6F36ULL,0xFF462EB3FFD25130ULL,
};

static const uint64_t __blob_Sigmoid_387_activ_ROM0[] = {
  0x000000000CC44240ULL,
};

static const uint64_t __blob_Sigmoid_387_activ_ROM1[] = {
  0x0000C00000000000ULL,0x0DD101D1C2C40080ULL,0xEE3520EA06BCDB79ULL,0x0222EE4D23330000ULL,0x38ABF555EF932022ULL,0xE95C2F8EF8E4E360ULL,0x0000CD9A48CDF333ULL,0x066600001C1A099AULL,
  0x13531311FDDE259AULL,0x000031A00460FFAAULL,
};

static const uint64_t __blob_Conv2D_336_mul_scale_338[] = {
  0x407D3B753FF54729ULL,0x26692C4331BC3969ULL,0x28FE29362FD1357BULL,0x1CA91BAB174C1ED0ULL,0x3552350A33B034EAULL,0x26A232D63BEE31DDULL,0x34512B522ED7241DULL,0x2A48240D1FF62BEBULL,
  0x383737C73FDC486BULL,0x23BD33F829463F6CULL,0x21101E5C282C25E0ULL,0x22FB1E0F184D1B0EULL,0x379637AE35AB44E5ULL,0x2A8039CA41F02DB6ULL,0x265132C625D82283ULL,0x275B23E5222A2691ULL,
};

static const uint64_t __blob_Conv2D_336_off_bias_341[] = {
  0xFFCA8D2EFFA6CA23ULL,0xFF94E538FFBCB59BULL,0xFFD825C8FFCD93CFULL,0xFF47EA9EFF87CA1EULL,0xFF0A2559FF2DEAF0ULL,0xFE919D4AFED7C675ULL,0xFE49F772FE8AD0D7ULL,0xFE95F2FEFE3A876BULL,
  0xFFC5D91EFF9E0AEEULL,0xFFC19C42FFC5AC10ULL,0xFFB2C739FFB8D875ULL,0xFF6CFE18FFA14FC4ULL,0xFEF93E9DFF3503C1ULL,0xFE9CCB76FEC1AF35ULL,0xFE557273FE6A4DB3ULL,0xFE8E8B5BFE3FEACEULL,
  0xFFE040E8FFAB7209ULL,0xFFC71271FFD6EFE0ULL,0xFFBB5096FFC40B71ULL,0xFF5C3B66FF992CD1ULL,0xFED9DAABFF1C8BA4ULL,0xFE9698E8FEAF9E52ULL,0xFE6A1FD2FE76F625ULL,0xFE8E247DFE37AD91ULL,
  0xFFD651CBFFBCBF62ULL,0xFFDCD495FFD6BAECULL,0xFF7B028FFFC77CDEULL,0xFF4E64F0FF56A5E7ULL,0xFEE3DBB5FF21383AULL,0xFEA79D2EFEBFC21CULL,0xFE718A48FE8E9A01ULL,0xFEA22CD0FE406B48ULL,
};

static const uint64_t __blob_Conv2D_392_mul_scale_401[] = {
  0x3E4D37B6291534BAULL,0x3DD217262F2E128AULL,0x2DB051D915E022A4ULL,0x2A684BA81F202253ULL,0x29B01F8621203012ULL,0x3AF8236020DE3BC6ULL,0x428819AD4C6B3DEFULL,0x36D838E22AAD1C66ULL,
  0x34253C6043553725ULL,0x1EB0340644C71733ULL,0x2DDC48BA2A1725EEULL,0x3FF826F22D533350ULL,0x468525761A0C3D11ULL,0x1E6D3B733E113AB0ULL,0x47E11BBC35AE3748ULL,0x30602B593FE72E9FULL,
};

static const uint64_t __blob_Conv2D_392_off_bias_404[] = {
  0xFFBF8E6DFF8390DAULL,0xFEF7AAD8FE9AAB6AULL,0xFFBEF3AEFF9044A8ULL,0xFEF3CCA9FF8426FDULL,0x004B3649FE61007FULL,0x011E08ECFDF245BEULL,0xFFA6619DFEDBA613ULL,0xFF82E159FF2EF318ULL,
  0xFF893840FFF0E312ULL,0xFFC4A1D3FF8796DAULL,0xFD963AFE0030C25FULL,0xFEBAC1FE0108F2D4ULL,0xFE341A4EFF6FC862ULL,0xFEFA6DA10001E076ULL,0xFFA91A67FF15AA58ULL,0xFF748174FF9E1C47ULL,
  0x006BC51FFFEF3F9FULL,0xFF0E515BFF7310E8ULL,0xFF0F00AEFFE90F8DULL,0xFF46737FFF93A215ULL,0xFF7854ABFE71343BULL,0xFFD35D46FEC81894ULL,0x00B30AAFFF47EE3DULL,0xFEE00988FF7FE1EAULL,
  0x00C940EBFEEB05A1ULL,0xFF310FDC0042D67EULL,0x009F5156008DB32EULL,0xFFFD894FFEF192FFULL,0x00638C6BFFABF6F5ULL,0xFF61C5ABFF5368CCULL,0xFED98761FF954E16ULL,0xFF31C119FFCF66E5ULL,
};

static const uint64_t __blob_Sigmoid_395_activ_ROM0[] = {
  0x0000000011C9C100ULL,
};

static const uint64_t __blob_Sigmoid_395_activ_ROM1[] = {
  0x02D8C00000000000ULL,0x35000800F02E1777ULL,0xC8D502AB00001824ULL,0x0CCDDB600F550222ULL,0x5D0018000D803D9AULL,0x1B844E6611112368ULL,0xE66615DC378EF8E4ULL,0x2A66F33315803800ULL,
  0x215C1CE4F8E41980ULL,0x00002EED0C22FDDEULL,0x000000003A900200ULL,0x3F80000000003F80ULL,0x00003F8000000000ULL,0x000000003F800000ULL,
};

static const uint64_t __blob_Conv2D_401_mul_scale_410[] = {
  0x099422D41B194D94ULL,0x15CE163A108612D7ULL,0x164C1BDC15CE0E4FULL,0x158E08970BF30FE5ULL,0x0F5918DD0D3221F5ULL,0x16640BBB129A1194ULL,0x104A15FA0DE70F16ULL,0x37E8185B11AD1309ULL,
  0x19051191146613BCULL,0x0A81190D2F750A11ULL,0x0D831E24197D25DFULL,0x0AA42365167A0A97ULL,0x1A6A11B51B3E2F74ULL,0x266B12DF0D1A0B36ULL,0x085A1EAF137029C8ULL,0x15B11BF51445136EULL,
  0x12F3196F17B2158DULL,0x0F601DA4104B0D09ULL,0x0A0323D519FE2699ULL,0x0FA21650102610C5ULL,0x104A17D212811D00ULL,0x1D8716CC11B12B73ULL,0x100219A6197648A1ULL,0x07780AA524EC1923ULL,
  0x2011220622C11C36ULL,0x165C116A1162361FULL,0x1DD61BB527F52AD3ULL,0x090716052AAA114AULL,0x07D41EBB0C721573ULL,0x1B5E0B960D120D7DULL,0x091A0F3512F813CBULL,0x14060BBB1C3F2C85ULL,
};

static const uint64_t __blob_Conv2D_401_off_bias_413[] = {
  0x01E1F15501B38DFEULL,0x028F39F50288AF27ULL,0x022FFB7901732BCFULL,0x01BB471301C2B374ULL,0x0192374F01CDD163ULL,0x01AA117801A6D5DDULL,0x0188865702D9A3C0ULL,0x019EDBB9027DE79BULL,
  0x01ABC7CA01DEA2CEULL,0x02CCA0B901F873A7ULL,0x021F0DED01582D6AULL,0x01288412030AAE03ULL,0x01C6A6D402EB901FULL,0x0183313501F6B169ULL,0x016C2A2C022EF2ACULL,0x011B962801B19DBFULL,
  0x020B03D10235835DULL,0x01F1147C01DEB3A8ULL,0x0193C2AC0227D5F0ULL,0x0221A8640226D5F9ULL,0x01D8CF960179E128ULL,0x01F8BDB0017409D5ULL,0x023754B1023A1BB9ULL,0x0376643F01E0A5C8ULL,
  0x01FCB9D902802BCCULL,0x024CBBD501E2D126ULL,0x01BAA8D5020227D0ULL,0x01CD419E01D99E46ULL,0x020FB297024CE1ECULL,0x0296CA2D01C57303ULL,0x02487C54021F7AE9ULL,0x01D9C0CD007AEDBFULL,
  0x0223234A01F5F0DCULL,0x01E9BB440193122BULL,0x0200C46E01F46FB3ULL,0x01C8F6110227744BULL,0x0128D22C01F02311ULL,0x02B30F1301C5E418ULL,0x0235575E023F72F8ULL,0x01C3089F01C4735DULL,
  0x0125A3E801B01FF7ULL,0x021CBB4702533401ULL,0x0258F0D8019EBB66ULL,0x0228CEE6029F8131ULL,0x023EECF00264C9BBULL,0x018B4C7201FCA8B1ULL,0x00ECC9610226CAC1ULL,0x02B44877023F9773ULL,
  0xFF4861D501C964C5ULL,0x01FB52C7027EB791ULL,0x019C539B00FBA819ULL,0x0214D7AB023142E0ULL,0x022394C20281C96CULL,0x01857886020F77E6ULL,0x020D395F01BE6309ULL,0x028ACDCF02178BE4ULL,
  0x019CFFBD02690E75ULL,0x02A7D2CD016D3A12ULL,0x015349C201FBD280ULL,0x01BD56B902059E8BULL,0x0317BA9B0167D38FULL,0x02300B3401D1652EULL,0x0298CB8B01D49A27ULL,0x01C7F36C02A9DADFULL,
};

static const uint64_t __blob_Sigmoid_404_activ_ROM0[] = {
  0x00000000000000C0ULL,
};

static const uint64_t __blob_Sigmoid_404_activ_ROM1[] = {
  0x0000E00000000000ULL,0x034D0089E0000000ULL,0xE287055E019DE271ULL,0xF55DE2F3040D0B04ULL,0x1CC5FD74B2A15F66ULL,0x1FC000000000F70DULL,
};

static const uint64_t __blob_Conv2D_455_mul_scale_473[] = {
  0x135620014FE92B6EULL,0x4F2C30FF30BC24B3ULL,0x22C22D544A521D8EULL,0x19D51EAC3B3F24DBULL,0x2DAD26AA2492514CULL,0x2AC0370722F120E9ULL,0x2C3943592A832DB6ULL,0x2E8C157612541CC5ULL,
  0x31A73B2B211E1BD3ULL,0x17BF167A2A1021A6ULL,0x23AD1D3A24F721CBULL,0x52A4535629DC2E41ULL,0x1AA11FA228043A2FULL,0x1FDC3CFD1AC71F4EULL,0x1D3228FB2AEB2A0DULL,0x2F972FB92E1C2BF8ULL,
  0x38B125F349AD3EF2ULL,0x227E333C19B22C87ULL,0x1C7433701A3B3D30ULL,0x2C613DBE226D1B8FULL,0x31FB3518378633ACULL,0x12EE2FED2BDD24A4ULL,0x2ABA3183241A1F89ULL,0x23953519291A1894ULL,
  0x36432C58300D276BULL,0x26DB2A671F6616C4ULL,0x2BC848B535411DC3ULL,0x265C22BD20721333ULL,0x2A05327E29BC25CEULL,0x54A0229F2B452BBBULL,0x26EF3C6227232C83ULL,0x21AF236B1B622312ULL,
};

static const uint64_t __blob_Conv2D_455_off_bias_476[] = {
  0xFF650A13FFFE68E1ULL,0x00CC525CFF1629A3ULL,0x0030690201D334D9ULL,0x00C3FD200052EF12ULL,0xFEA600EE002677D0ULL,0x0104BA12005351D8ULL,0xFFB11E090033BFDFULL,0x01148F960090D631ULL,
  0x0151E43B00FD23C0ULL,0x000960A100511D79ULL,0xFFF230A4FFCCF0B7ULL,0x0056BC7700BF4DB5ULL,0x01036FFEFF33BA3FULL,0xFFDF1595014ED2A8ULL,0x0136651E009B056EULL,0xFFE7D0960113D91BULL,
  0xFFA50C9E01007AB4ULL,0x001ED13F00230930ULL,0x00E78C0500824C8DULL,0x01219A9A0085F9A8ULL,0x002855D601174050ULL,0x002F9497003B482AULL,0x00B6D9F1FDA4540CULL,0x0095CD50FF630813ULL,
  0x0159C46300031E6DULL,0x006B4189FFDA2C35ULL,0x008DCB650007711FULL,0x014ECD490012ED0EULL,0x0075FDC9FFC84799ULL,0x00A8A9DC005D9996ULL,0x0098AFE500925E75ULL,0x00A378DC0042E7BBULL,
  0xFF4F6A35001736B3ULL,0x005038D0008618BDULL,0x011FD8F9011865D9ULL,0x004DEFE40129DBEDULL,0x004462BAFFD750E4ULL,0x001DF8670045964CULL,0x019DEC83007F6DA5ULL,0x0015185DFF0CDD52ULL,
  0xFF804C78005F3F56ULL,0x016C2DE000923443ULL,0x00A47524004290F2ULL,0x002D8DBB00B3B1A3ULL,0xFF71A1770158164EULL,0x008D3027FEEEB929ULL,0xFF102B2D0109FEB9ULL,0x00CF2C540163E8C8ULL,
  0xFF87658800B61948ULL,0xFEFF38D000747E08ULL,0x00ECC00A01450CC9ULL,0xFFF82650006335ABULL,0x0100B7BA00BF9471ULL,0x0060135DFFB86747ULL,0x011BB6B101332826ULL,0xFFF17C85FF9341A0ULL,
  0x00BA813000A36967ULL,0x009F2B87000C051EULL,0xFFFE9C04FF6DD5BBULL,0xFEED03E8FF90E253ULL,0x007FF7B000D18F99ULL,0x00502A34FF12093DULL,0x000F6BEE0170A4D0ULL,0x00DB6C07FFD3E52BULL,
};

static const uint64_t __blob_Sigmoid_458_activ_ROM0[] = {
  0x000000000BC34100ULL,
};

static const uint64_t __blob_Sigmoid_458_activ_ROM1[] = {
  0x017488BC02450012ULL,0x3704057EB28017A3ULL,0xD2003AAB0000D1BFULL,0xFDDED00040000000ULL,0x7C00F555CF04459AULL,0xB7646472F8E4A395ULL,0xFD28A1387200F800ULL,0x0C000000F13F3889ULL,
  0x4E7F0E72FF7846E0ULL,
};

static const uint64_t __blob_Conv2D_409_mul_scale_419[] = {
  0x30FA208211A61043ULL,0x18A212FD26960F37ULL,0x119616FC14551A21ULL,0x11220BBF10E60D8AULL,0x0EDF211B1713108AULL,0x1E9E16B51DE91E61ULL,0x0C3D0B4412FE12C7ULL,0x0C3F238238332BE0ULL,
  0x11DE19FA0D7304B3ULL,0x0E8114A2144F0D0EULL,0x2BB4170F0D2024A6ULL,0x0E5D0EBB100610F1ULL,0x0BB221611A890B94ULL,0x0E212F68106C1E81ULL,0x1D5C0EA041561396ULL,0x0B040BF2152B176DULL,
};

static const uint64_t __blob_Conv2D_409_off_bias_422[] = {
  0x0084FA71017261FCULL,0x009E5CDF01250365ULL,0x009F780C007F3942ULL,0xFEDDF7A0006F5975ULL,0x0091BA3800FB4306ULL,0xFF76F33C00AF18C0ULL,0x00E7C6BFFF8095E6ULL,0xFFE5598200873DABULL,
  0x00572C7000F3CA64ULL,0x0156B40E000C2247ULL,0x001E6EE2002F89FFULL,0xFF9FD5F300AF3C2BULL,0x0019FF6300C2E804ULL,0xFF81C0F700D791A2ULL,0x006521C800BEF9D2ULL,0x001B60FF00E55FFEULL,
  0x00BD91A000F58FA7ULL,0x00BAF6B500A73E92ULL,0x00A96FA300EE31AFULL,0x00AA596B0096A440ULL,0xFFBD5F19FF0AD121ULL,0x00589ADC00B54991ULL,0x00ECC3A100327F71ULL,0x002219D801E5FA89ULL,
  0x005A346900C1B137ULL,0x0010E2A4FFFE8243ULL,0xFF88BE4BFF5A817BULL,0x0141FA6B007F4519ULL,0x00B8523500D38999ULL,0x00579E9400A6472DULL,0x00B81E6A004CBF91ULL,0x007A9881FEDDF936ULL,
};

static const uint64_t __blob_Sigmoid_412_activ_ROM0[] = {
  0x000000000DC58100ULL,
};

static const uint64_t __blob_Sigmoid_412_activ_ROM1[] = {
  0xFF01C00000000000ULL,0x0A5F0195B77BF9EFULL,0xE6B920400755D19CULL,0x0000EE212DE40DBDULL,0x3900F800EE003000ULL,0xE4684800F000EB9CULL,0xF99AF64D3111F777ULL,0x1133FDDE023A26CDULL,
  0x1AB413ABFD551D82ULL,0x000037D002000000ULL,0x000000003F800000ULL,
};


static const uint64_t __blob_Conv2D_432_mul_scale_446[] = {
  0x4B6134C314DB2C9BULL,0x13B919A710372686ULL,0x1E332FFD240E0EA6ULL,0x15884231174611C4ULL,0x136F1DF1568A1246ULL,0x20722E754ED11005ULL,0x34FA34713DA41038ULL,0x184C266E16A731A3ULL,
  0x12FD16A23A56122EULL,0x1565182F17091545ULL,0x10D016CA3ABD1CD4ULL,0x2F0017131E0815BAULL,0x12A32AA220591415ULL,0x22CF1BCC23FA10E4ULL,0x0ED817382BA415F8ULL,0x1E8838351C9420A1ULL,
};

static const uint64_t __blob_Conv2D_432_off_bias_449[] = {
  0xFFFA8A1B00A1AAD7ULL,0xFF465E8EFF10A3D0ULL,0x005C9E3AFF13C00BULL,0xFFBADAC2FFB3D887ULL,0xFF494ADA003DF8F2ULL,0x004FD76EFF3935FEULL,0xFFD85F58003E7E9AULL,0xFEFE7676FF375C68ULL,
  0xFFED3FDE001E8176ULL,0xFEE9A5280024B97BULL,0xFF5B8D90FFB91894ULL,0xFF1FF570002D2EFCULL,0xFF8D2D4AFF4EC844ULL,0xFFB43196FF25419EULL,0xFFF90BD1FF7D997EULL,0xFF604B6FFF80775EULL,
  0xFF606EA6FF86C0B9ULL,0xFFC9857DFF2AC148ULL,0xFF39FFB8FF6E522FULL,0xFF6FB566FF025CBEULL,0xFFBBEAE6FF97A746ULL,0xFF473A09FF898A49ULL,0x0023D9E4FF019BD6ULL,0xFF1A0123FF873762ULL,
  0x004FA5A9FFCD0665ULL,0xFF9E38420028F180ULL,0xFFE67FF2FF3F0CC4ULL,0xFF34A5C5FF835415ULL,0xFF102E7700109806ULL,0x004E45A8FFA2EFBDULL,0xFFDB5BCA002B4D6DULL,0xFE89F21BFFA12D04ULL,
};

static const uint64_t __blob_Sigmoid_435_activ_ROM0[] = {
  0x000000000D89C100ULL,
};

static const uint64_t __blob_Sigmoid_435_activ_ROM1[] = {
  0xFD28C5FD01FB0028ULL,0x02AB00009F9CEC72ULL,0xE4AD11BC0222CA80ULL,0x0CCD075C2C00071CULL,0x531C11C720DA4400ULL,0x223344000CCD2C74ULL,0xF13B1A9A28CDF333ULL,0x1917FA2F1AB029A9ULL,
  0x3252089FFE9422BAULL,0x00003F8000000000ULL,0x000000003F800000ULL,
};

static const uint64_t __blob_Conv2D_417_mul_scale_428[] = {
  0x0D08183819ED1198ULL,0x29E71C3D11E11F33ULL,0x10ED1E1C19BE35B2ULL,0x12E7152617442655ULL,0x19AE0A7D0CF90CEEULL,0x278B14A0151D47F4ULL,0x0B0709541CEB1180ULL,0x2ADB18C80C3411CFULL,
  0x0C6420A80AB21573ULL,0x195711A412F81B13ULL,0x16541F43090E23F0ULL,0x1396272C0F1D20FAULL,0x17CB15D50F802197ULL,0x15070CEA3AE6309CULL,0x1453141316803231ULL,0x0861147C09B31281ULL,
};

static const uint64_t __blob_Conv2D_463_mul_scale_482[] = {
  0x3005330C24692199ULL,0x2A8136922FDA200BULL,0x1AC52219248F2763ULL,0x27742FF1225928CCULL,0x21D92BAA28003C28ULL,0x21BC23BA273A1E1BULL,0x1CE020B5254525C7ULL,0x192F1DFF29812452ULL,
  0x2F7B2D7820F4309FULL,0x1EFC38F21EB32F6BULL,0x21C1288F211539E5ULL,0x27DF16162380123DULL,0x33132E9426C6337BULL,0x1B30262323AF28C8ULL,0x21221D4E1F4E3893ULL,0x3AF81D5021C72138ULL,
  0x2F8A1D18181F2ACAULL,0x1D631FC5278317AAULL,0x269128A2247020F7ULL,0x1F69346D1FA236C9ULL,0x2993385B245D1A3DULL,0x2419248E36F92578ULL,0x1DDB119F1C2B31ABULL,0x274F1CEE21111C3EULL,
  0x26BF1A72203123CEULL,0x1D2B206320063CF3ULL,0x1B1D241D198B1BDAULL,0x1F0321841E0131B8ULL,0x22621FE41EAD2458ULL,0x16B1230E253E1CECULL,0x3C052B4A2375289DULL,0x2502280C1DD532B0ULL,
  0x28AC2EF612BF1F28ULL,0x30651DED131C1010ULL,0x321D1DEB2831314BULL,0x231718AC1776264BULL,0x0BF914C026242076ULL,0x1FFD633118252E4DULL,0x2CF11A0A38C12463ULL,0x2176160D1B1224B6ULL,
  0x2DEB270E299A1120ULL,0x1C082D8A30F62894ULL,0x21A423D02B442E01ULL,0x11611AB20F2C1FA7ULL,0x12CA11462CD12E63ULL,0x157C0F19594A26A6ULL,0x2D53255927731921ULL,0x1BBD0CE51FE42228ULL,
  0x29604885267B1A79ULL,0x26F22532543E235AULL,0x19D12386330E1358ULL,0x26351536258D26E4ULL,0x2C96222A29D21AE0ULL,0x127B20F1191325FCULL,0x226721721ED82566ULL,0x290E12E71A3011E0ULL,
  0x152D221B0C8E1F65ULL,0x14561F8C318916CCULL,0x11941D3A2A3B28F3ULL,0x245020741CA6150AULL,0x27E0176F0F5D26ACULL,0x1C063D3720171B54ULL,0x445A1BAC17EE21A8ULL,0x18C02AA224DD1EE7ULL,
};

static const uint64_t __blob_Conv2D_463_off_bias_485[] = {
  0xFEC4FC1AFE924B3BULL,0xFE220B3FFE2DD6F8ULL,0xFE457039FE0D148CULL,0xFDE455A5FD3B4E9DULL,0xFDE2C257FDCCDC9CULL,0xFE1CB637FE00A763ULL,0xFE09EB44FE20C105ULL,0xFDD84F30FDEBB986ULL,
  0xFEA4850AFDEB609BULL,0xFDC4F535FE0FF822ULL,0xFD5120C0FE60C57DULL,0xFE643E41FDB6ED4DULL,0xFDF6DE7EFE403C16ULL,0xFE88E428FDE19BE5ULL,0xFED13A9DFE41D2F5ULL,0xFEE59C5CFD7C6183ULL,
  0xFE5A5BE9FE59A91DULL,0xFDADEA8DFDF0906FULL,0xFDF54124FDDE95ACULL,0xFD6D5380FDE390ECULL,0xFDE7D189FDA59E79ULL,0xFEFA4DFAFDA6DDBDULL,0xFE97B8EFFEBDBB2AULL,0xFE131DF7FE597DD3ULL,
  0xFDD4385DFDD64934ULL,0xFE46406BFDBED678ULL,0xFE8E8B3AFD967845ULL,0xFE2A4E4BFE96DA32ULL,0xFEAC18FCFE72434BULL,0xFE4E8904FEDCF6D6ULL,0xFF975CBEFEAC5AD0ULL,0xFDB1D24EFE821E10ULL,
  0xFE67984CFD8315EFULL,0xFDDEB4F8FE040A00ULL,0xFEFF7471FDB85B7BULL,0xFDD22E16FE3E4624ULL,0xFEA5E50BFD2E446EULL,0xFE538161FDEDB9BEULL,0xFE1A85C8FDFBFF9AULL,0xFE20A2FCFEAF16A1ULL,
  0xFE0A5304FDD78FABULL,0xFE55F5F1FE3652F1ULL,0xFDCEE546FD32F427ULL,0xFEA13E21FDD1D48BULL,0xFEF537C3FDDB9043ULL,0xFDFC25D7FE9C449DULL,0xFE42C613FDC0844AULL,0xFE2B6001FE655AD4ULL,
  0xFE1C7B81FE9646ECULL,0xFE7906C5FDC0E879ULL,0xFE890CD5FD32E6B3ULL,0xFDD0D413FE7ECDC6ULL,0xFE717C5EFE1D992FULL,0xFE6EBD66FDEE3134ULL,0xFE7A5651FE376DF8ULL,0xFE3F00E3FE839302ULL,
  0xFE4600F3FD87C217ULL,0xFE354F90FDE0450FULL,0xFE2060BDFE52A6A0ULL,0xFE2979E1FDED7B77ULL,0xFDEEDD39FD8B23C9ULL,0xFD9E7B8CFEFBB93DULL,0xFE33D874FEC4B8B7ULL,0xFE6BD08CFD9D9AC9ULL,
  0xFF81C198FE244C38ULL,0xFE1CA888FDBE4365ULL,0xFEB08799FFA67519ULL,0xFF10E677FDD2A396ULL,0xFF66F0EFFD89434CULL,0xFEB27746FE2CB4DAULL,0xFDF12EA1FE109E28ULL,0xFD86B7C0FF20D4F3ULL,
  0xFDFB4CE6FD4FE64FULL,0xFFB7C68BFEFEF884ULL,0xFE802638FEC501E3ULL,0xFE441A1CFDE796ADULL,0xFE085C0FFF52875EULL,0xFE72E10AFE3C4B98ULL,0xFDFA4239FE53EEC3ULL,0xFDBFEE6DFE7E1108ULL,
  0xFE6B3E91FE08E6D7ULL,0xFDB1D980FFAC2F79ULL,0xFEF4EB3DFE4BD76EULL,0xFE52E12BFD82C3BFULL,0xFEBF8A4BFDFA585DULL,0xFE49B8A1FDFC5219ULL,0xFEDE3ABCFE24131DULL,0xFF1804D2FE47DD2FULL,
  0xFE734252FEDCFF96ULL,0xFFC2D7E0FF14A171ULL,0xFE0A2529FE2BDCC2ULL,0xFE46FEECFF6FF880ULL,0xFDDC8591FDA61D60ULL,0xFE0ACE5DFEB221CDULL,0xFEAA44E9FEA67627ULL,0xFE82DBB5FF10112CULL,
  0xFE9DE9F5FE2F0239ULL,0xFEC85AB0FDCEF3C9ULL,0xFDD74794FE85BF5FULL,0xFD355A68FD361880ULL,0xFEB2C136FE8AC8A9ULL,0xFE5F4471FEB8953FULL,0xFDACB531FF331728ULL,0xFE193547FE64C31AULL,
  0xFE01B1E5FEFB795AULL,0xFDBF3C95FD9A98ADULL,0xFE19F670FE9DF313ULL,0xFEFB90C2FDBB79A4ULL,0xFE94F628FE3A99B8ULL,0xFDD3DB28FE4B7A55ULL,0xFDF9215CFE8A5F17ULL,0xFDD39E7EFF050F5BULL,
  0xFF16D8CBFEB12EA9ULL,0xFEC0A60DFDC6DFAAULL,0xFE2326A1FE6E152AULL,0xFE739F58FE1D7226ULL,0xFD856090FF3B7736ULL,0xFF108650FE272D1EULL,0xFE430934FE81A42FULL,0xFE5AE9ACFE42E0D6ULL,
  0xFF6BCEF3FF2B2CC2ULL,0xFDC13E6CFE422F9FULL,0xFE4672EBFF26088BULL,0xFDFAC344FE692B07ULL,0xFF073001FE321E66ULL,0xFD702480FF0664A0ULL,0xFE333129FD347671ULL,0xFE8D1B7BFF24E87AULL,
};

static const uint64_t __blob_Sigmoid_466_activ_ROM0[] = {
  0x000000000000C8C0ULL,
};

static const uint64_t __blob_Sigmoid_466_activ_ROM1[] = {
